node {
  name: "global_step/Initializer/zeros"
  op: "Const"
  attr {
    key: "_class"
    value {
      list {
        s: "loc:@global_step"
      }
    }
  }
  attr {
    key: "_output_shapes"
    value {
      list {
        shape {
        }
      }
    }
  }
  attr {
    key: "dtype"
    value {
      type: DT_INT64
    }
  }
  attr {
    key: "value"
    value {
      tensor {
        dtype: DT_INT64
        tensor_shape {
        }
        int64_val: 0
      }
    }
  }
}
node {
  name: "global_step"
  op: "VariableV2"
  attr {
    key: "_class"
    value {
      list {
        s: "loc:@global_step"
      }
    }
  }
  attr {
    key: "_output_shapes"
    value {
      list {
        shape {
        }
      }
    }
  }
  attr {
    key: "container"
    value {
      s: ""
    }
  }
  attr {
    key: "dtype"
    value {
      type: DT_INT64
    }
  }
  attr {
    key: "shape"
    value {
      shape {
      }
    }
  }
  attr {
    key: "shared_name"
    value {
      s: ""
    }
  }
}
node {
  name: "global_step/Assign"
  op: "Assign"
  input: "global_step"
  input: "global_step/Initializer/zeros"
  attr {
    key: "T"
    value {
      type: DT_INT64
    }
  }
  attr {
    key: "_class"
    value {
      list {
        s: "loc:@global_step"
      }
    }
  }
  attr {
    key: "_output_shapes"
    value {
      list {
        shape {
        }
      }
    }
  }
  attr {
    key: "use_locking"
    value {
      b: true
    }
  }
  attr {
    key: "validate_shape"
    value {
      b: true
    }
  }
}
node {
  name: "global_step/read"
  op: "Identity"
  input: "global_step"
  attr {
    key: "T"
    value {
      type: DT_INT64
    }
  }
  attr {
    key: "_class"
    value {
      list {
        s: "loc:@global_step"
      }
    }
  }
  attr {
    key: "_output_shapes"
    value {
      list {
        shape {
        }
      }
    }
  }
}
node {
  name: "Const"
  op: "Const"
  attr {
    key: "_output_shapes"
    value {
      list {
        shape {
          dim {
            size: 4000
          }
          dim {
            size: 12
          }
        }
      }
    }
  }
  attr {
    key: "dtype"
    value {
      type: DT_INT64
    }
  }
  attr {
    key: "value"
    value {
      tensor {
        dtype: DT_INT64
        tensor_shape {
          dim {
            size: 4000
          }
          dim {
            size: 12
          }
        }
        tensor_content: "\367$\000\000\000\000\000\000\236\247\000\000\000\000\000\000\202U\000\000\000\000\000\000Mg\000\000\000\000\000\000\334\031\000\000\000\000\000\000\230\235\000\000\000\000\000\000;\037\000\000\000\000\000\000\364\035\000\000\000\000\000\000\350\221\000\000\000\000\000\000\271\261\000\000\000\000\000\000\343\264\000\000\000\000\000\000\311e\000\000\000\000\000\000\310T\000\000\000\000\000\000*\203\000\000\000\000\000\000Mg\000\000\000\000\000\0009\007\000\000\000\000\000\0003c\000\000\000\000\000\000\200\300\000\000\000\000\000\000\317\205\000\000\000\000\000\000\270[\000\000\000\000\000\000\0011\000\000\000\000\000\000\232)\000\000\000\000\000\000\2324\000\000\000\000\000\000\334\246\000\000\000\000\000\000C\004\000\000\000\000\000\000\273\220\000\000\000\000\000\000,\\\000\000\000\000\000\000\2372\000\000\000\000\000\000o\302\000\000\000\000\000\000}\027\000\000\000\000\000\000PN\000\000\000\000\000\000\204\035\000\000\000\000\000\000wv\000\000\000\000\000\000\240?\000\000\000\000\000\000_t\000\000\000\000\000\000$\251\000\000\000\000\000\000\007\n\000\000\000\000\000\000h}\000\000\000\000\000\0008#\000\000\000\000\000\000\207\256\000\000\000\000\000\000\031[\000\000\000\000\000\000\363\211\000\000\000\000\000\000(\020\000\000\000\000\000\000{[\000\000\000\000\000\000ZA\000\000\000\000\000\000e$\000\000\000\000\000\000Y\247\000\000\000\000\000\000M/\000\000\000\000\000\000d9\000\000\000\000\000\000\337\302\000\000\000\000\000\000f\017\000\000\000\000\000\000\372\274\000\000\000\000\000\000sG\000\000\000\000\000\000lW\000\000\000\000\000\000+\200\000\000\000\000\000\000q\004\000\000\000\000\000\000XW\000\000\000\000\000\000:E\000\000\000\000\000\000\231\257\000\000\000\000\000\000\3667\000\000\000\000\000\000\0052\000\000\000\000\000\000\200\253\000\000\000\000\000\000+\302\000\000\000\000\000\000\3002\000\000\000\000\000\000\366\272\000\000\000\000\000\000o\237\000\000\000\000\000\000\035c\000\000\000\000\000\000\232#\000\000\000\000\000\000P\301\000\000\000\000\000\000\203\227\000\000\000\000\000\000-\036\000\000\000\000\000\000\212q\000\000\000\000\000\000\373k\000\000\000\000\000\000\320\237\000\000\000\000\000\000\255l\000\000\000\000\000\000\316\217\000\000\000\000\000\000\203U\000\000\000\000\000\000\347*\000\000\000\000\000\000$\036\000\000\000\000\000\000\037\025\000\000\000\000\000\000\252\247\000\000\000\000\000\000xk\000\000\000\000\000\000\254I\000\000\000\000\000\000a9\000\000\000\000\000\000\3449\000\000\000\000\000\000\215\031\000\000\000\000\000\000(\253\000\000\000\000\000\000\232\026\000\000\000\000\000\000\373\230\000\000\000\000\000\000\213\250\000\000\000\000\000\000\236s\000\000\000\000\000\000\303X\000\000\000\000\000\000R\006\000\000\000\000\000\000\000\002\000\000\000\000\000\000G\270\000\000\000\000\000\000\300\236\000\000\000\000\000\000\215\236\000\000\000\000\000\000CD\000\000\000\000\000\000!\234\000\000\000\000\000\000\007\020\000\000\000\000\000\000\"\257\000\000\000\000\000\0009\203\000\000\000\000\000\000\202Y\000\000\000\000\000\000\376f\000\000\000\000\000\000\255g\000\000\000\000\000\000\373{\000\000\000\000\000\000t\261\000\000\000\000\000\000\256:\000\000\000\000\000\000\235\301\000\000\000\000\000\000\207i\000\000\000\000\000\000\264K\000\000\000\000\000\000\2566\000\000\000\000\000\000\0078\000\000\000\000\000\000\214I\000\000\000\000\000\000\260\251\000\000\000\000\000\000\223B\000\000\000\000\000\000\267\234\000\000\000\000\000\000\320R\000\000\000\000\000\000\303\265\000\000\000\000\000\000rg\000\000\000\000\000\000u\227\000\000\000\000\000\000\333\017\000\000\000\000\000\000\202\275\000\000\000\000\000\000\3354\000\000\000\000\000\000\251\r\000\000\000\000\000\000\3779\000\000\000\000\000\000\376\036\000\000\000\000\000\0009\264\000\000\000\000\000\000v\212\000\000\000\000\000\000x7\000\000\000\000\000\000\254\031\000\000\000\000\000\000`B\000\000\000\000\000\000\0273\000\000\000\000\000\000\325\007\000\000\000\000\000\000\306.\000\000\000\000\000\000+\213\000\000\000\000\000\000\346\226\000\000\000\000\000\000\221u\000\000\000\000\000\000\306u\000\000\000\000\000\000\315\016\000\000\000\000\000\000\242\034\000\000\000\000\000\000\036\271\000\000\000\000\000\000\020\211\000\000\000\000\000\000%\262\000\000\000\000\000\000\350\023\000\000\000\000\000\000PH\000\000\000\000\000\000\323\021\000\000\000\000\000\000\375\022\000\000\000\000\000\000\216\226\000\000\000\000\000\000m\231\000\000\000\000\000\000\371W\000\000\000\000\000\000-\302\000\000\000\000\000\000q\225\000\000\000\000\000\000b]\000\000\000\000\000\000>\002\000\000\000\000\000\000\3563\000\000\000\000\000\000\334\300\000\000\000\000\000\000\361Y\000\000\000\000\000\000\350$\000\000\000\000\000\000\375L\000\000\000\000\000\000\336\006\000\000\000\000\000\000;N\000\000\000\000\000\000Td\000\000\000\000\000\000.~\000\000\000\000\000\000\376\277\000\000\000\000\000\000\303]\000\000\000\000\000\000g\022\000\000\000\000\000\000\256\033\000\000\000\000\000\000\2743\000\000\000\000\000\000\014\275\000\000\000\000\000\000\304\021\000\000\000\000\000\000\202\230\000\000\000\000\000\000\002\253\000\000\000\000\000\000\177o\000\000\000\000\000\000\300$\000\000\000\000\000\000\276\272\000\000\000\000\000\000<4\000\000\000\000\000\000\001\243\000\000\000\000\000\000\r\303\000\000\000\000\000\000\231?\000\000\000\000\000\000\2123\000\000\000\000\000\000]\020\000\000\000\000\000\000G=\000\000\000\000\000\000V\030\000\000\000\000\000\000\022\271\000\000\000\000\000\000\0303\000\000\000\000\000\000\023j\000\000\000\000\000\000T\233\000\000\000\000\000\000\337O\000\000\000\000\000\000T)\000\000\000\000\000\000\035\221\000\000\000\000\000\000P`\000\000\000\000\000\000\352\'\000\000\000\000\000\000\311\202\000\000\000\000\000\000\323~\000\000\000\000\000\000D\212\000\000\000\000\000\000g\037\000\000\000\000\000\0001$\000\000\000\000\000\000Av\000\000\000\000\000\000\363\242\000\000\000\000\000\000\255m\000\000\000\000\000\000P-\000\000\000\000\000\000\255\300\000\000\000\000\000\000)C\000\000\000\000\000\000\000\215\000\000\000\000\000\000\306W\000\000\000\000\000\000\"\'\000\000\000\000\000\000u\236\000\000\000\000\000\000!7\000\000\000\000\000\000n\236\000\000\000\000\000\000-\204\000\000\000\000\000\000\233\273\000\000\000\000\000\000\300\231\000\000\000\000\000\000\325\032\000\000\000\000\000\000\352\214\000\000\000\000\000\000V\222\000\000\000\000\000\0008\214\000\000\000\000\000\000\033<\000\000\000\000\000\000\347Z\000\000\000\000\000\000ij\000\000\000\000\000\000\333\212\000\000\000\000\000\000L\255\000\000\000\000\000\000\001\224\000\000\000\000\000\000V\235\000\000\000\000\000\000\326\032\000\000\000\000\000\000=3\000\000\000\000\000\000\251\276\000\000\000\000\000\000\273)\000\000\000\000\000\000\220\030\000\000\000\000\000\000\207\241\000\000\000\000\000\0003d\000\000\000\000\000\0003\225\000\000\000\000\000\000\325\300\000\000\000\000\000\000\035:\000\000\000\000\000\000N\037\000\000\000\000\000\0002\244\000\000\000\000\000\000\265\255\000\000\000\000\000\000\347f\000\000\000\000\000\000\376a\000\000\000\000\000\000i\273\000\000\000\000\000\000\270\004\000\000\000\000\000\000\000\266\000\000\000\000\000\000\003C\000\000\000\000\000\000\322+\000\000\000\000\000\000\272\222\000\000\000\000\000\000n\266\000\000\000\000\000\000\223\236\000\000\000\000\000\000|q\000\000\000\000\000\000\226x\000\000\000\000\000\000\367\302\000\000\000\000\000\000,\036\000\000\000\000\000\000\261\"\000\000\000\000\000\0002w\000\000\000\000\000\000d\256\000\000\000\000\000\000\3117\000\000\000\000\000\000\250v\000\000\000\000\000\000\345v\000\000\000\000\000\000\264\205\000\000\000\000\000\000\237\246\000\000\000\000\000\000C,\000\000\000\000\000\000M\242\000\000\000\000\000\000/\234\000\000\000\000\000\000\377\202\000\000\000\000\000\000;\205\000\000\000\000\000\000D;\000\000\000\000\000\000IF\000\000\000\000\000\000\0002\000\000\000\000\000\000\214Q\000\000\000\000\000\000\353X\000\000\000\000\000\000H~\000\000\000\000\000\000\325\231\000\000\000\000\000\000LI\000\000\000\000\000\000n\257\000\000\000\000\000\000C\215\000\000\000\000\000\000\205\016\000\000\000\000\000\0004\036\000\000\000\000\000\000\213\234\000\000\000\000\000\000\017\025\000\000\000\000\000\000}\273\000\000\000\000\000\000I\t\000\000\000\000\000\000\362\217\000\000\000\000\000\000-(\000\000\000\000\000\000Kp\000\000\000\000\000\000w\t\000\000\000\000\000\000Qw\000\000\000\000\000\000\343\247\000\000\000\000\000\000 \264\000\000\000\000\000\00014\000\000\000\000\000\000\245A\000\000\000\000\000\000\263\001\000\000\000\000\000\000\277-\000\000\000\000\000\000A\r\000\000\000\000\000\000n\300\000\000\000\000\000\000\334t\000\000\000\000\000\000\263\010\000\000\000\000\000\000\362|\000\000\000\000\000\000\325\250\000\000\000\000\000\000\372\200\000\000\000\000\000\000\375v\000\000\000\000\000\000\266p\000\000\000\000\000\000\246;\000\000\000\000\000\000\3047\000\000\000\000\000\000l\r\000\000\000\000\000\000[k\000\000\000\000\000\000\333\242\000\000\000\000\000\000\344I\000\000\000\000\000\000^\253\000\000\000\000\000\000\2506\000\000\000\000\000\000\267l\000\000\000\000\000\000\242\250\000\000\000\000\000\000\207\242\000\000\000\000\000\000\376\030\000\000\000\000\000\000\352\r\000\000\000\000\000\000\257\213\000\000\000\000\000\000\003F\000\000\000\000\000\000\237R\000\000\000\000\000\000\324.\000\000\000\000\000\000\326\203\000\000\000\000\000\000#\033\000\000\000\000\000\000\217\214\000\000\000\000\000\000\265g\000\000\000\000\000\000\t\256\000\000\000\000\000\000aL\000\000\000\000\000\000\310\270\000\000\000\000\000\000rz\000\000\000\000\000\000_\235\000\000\000\000\000\000\354\246\000\000\000\000\000\000P?\000\000\000\000\000\000\273\236\000\000\000\000\000\000\204\211\000\000\000\000\000\000R8\000\000\000\000\000\000ve\000\000\000\000\000\000\037\246\000\000\000\000\000\000GX\000\000\000\000\000\000C3\000\000\000\000\000\000E\007\000\000\000\000\000\000\3332\000\000\000\000\000\000\2657\000\000\000\000\000\000\005\201\000\000\000\000\000\000\022@\000\000\000\000\000\000\252\227\000\000\000\000\000\000\035\266\000\000\000\000\000\000\342X\000\000\000\000\000\000\0300\000\000\000\000\000\000\217-\000\000\000\000\000\000\027)\000\000\000\000\000\000\267e\000\000\000\000\000\000\354\020\000\000\000\000\000\000\351^\000\000\000\000\000\0003K\000\000\000\000\000\000\036a\000\000\000\000\000\000\207f\000\000\000\000\000\000\362\251\000\000\000\000\000\000\032G\000\000\000\000\000\0005a\000\000\000\000\000\000\217\006\000\000\000\000\000\000u\241\000\000\000\000\000\000\034a\000\000\000\000\000\000\255\222\000\000\000\000\000\000o\220\000\000\000\000\000\000EH\000\000\000\000\000\000-O\000\000\000\000\000\000\004T\000\000\000\000\000\000@X\000\000\000\000\000\000\316.\000\000\000\000\000\000`{\000\000\000\000\000\000\214\207\000\000\000\000\000\000\266}\000\000\000\000\000\000\026`\000\000\000\000\000\000KA\000\000\000\000\000\000\217\034\000\000\000\000\000\000\264s\000\000\000\000\000\000\274]\000\000\000\000\000\000^\206\000\000\000\000\000\000\267r\000\000\000\000\000\000\344\007\000\000\000\000\000\000)\260\000\000\000\000\000\000\3072\000\000\000\000\000\000\002F\000\000\000\000\000\000hW\000\000\000\000\000\000Wq\000\000\000\000\000\000\rf\000\000\000\000\000\000!w\000\000\000\000\000\000\363\213\000\000\000\000\000\000\365+\000\000\000\000\000\000\203.\000\000\000\000\000\000(U\000\000\000\000\000\0005i\000\000\000\000\000\000\320e\000\000\000\000\000\000\207\223\000\000\000\000\000\000{\013\000\000\000\000\000\000\346\215\000\000\000\000\000\000]8\000\000\000\000\000\000-\261\000\000\000\000\000\000\365\237\000\000\000\000\000\000\317`\000\000\000\000\000\000e\244\000\000\000\000\000\000\367*\000\000\000\000\000\000\332\235\000\000\000\000\000\000[E\000\000\000\000\000\000+u\000\000\000\000\000\000\360b\000\000\000\000\000\000\334\014\000\000\000\000\000\0003}\000\000\000\000\000\000\262-\000\000\000\000\000\000\357\t\000\000\000\000\000\000L_\000\000\000\000\000\000\200\300\000\000\000\000\000\000\360\n\000\000\000\000\000\000\336t\000\000\000\000\000\000C?\000\000\000\000\000\000\307w\000\000\000\000\000\000\335~\000\000\000\000\000\000.\250\000\000\000\000\000\000a\271\000\000\000\000\000\000\355h\000\000\000\000\000\000X!\000\000\000\000\000\000\365\025\000\000\000\000\000\000\t5\000\000\000\000\000\000\234\010\000\000\000\000\000\000$\211\000\000\000\000\000\000\206X\000\000\000\000\000\000\233\206\000\000\000\000\000\000\363:\000\000\000\000\000\000\226\235\000\000\000\000\000\000\027t\000\000\000\000\000\000#\241\000\000\000\000\000\000\022\226\000\000\000\000\000\000\255\027\000\000\000\000\000\000\345\220\000\000\000\000\000\000\332!\000\000\000\000\000\000c\203\000\000\000\000\000\000|\302\000\000\000\000\000\000\202\253\000\000\000\000\000\000\177]\000\000\000\000\000\000\020P\000\000\000\000\000\000\3675\000\000\000\000\000\000\003\223\000\000\000\000\000\000\005\214\000\000\000\000\000\000\365\007\000\000\000\000\000\000\313\267\000\000\000\000\000\000y\200\000\000\000\000\000\000:{\000\000\000\000\000\000\244\020\000\000\000\000\000\000Cc\000\000\000\000\000\000\200\004\000\000\000\000\000\000\276)\000\000\000\000\000\000\341q\000\000\000\000\000\000\326|\000\000\000\000\000\000j\r\000\000\000\000\000\000\226\302\000\000\000\000\000\000Us\000\000\000\000\000\000\225\271\000\000\000\000\000\000[\211\000\000\000\000\000\000\331b\000\000\000\000\000\000\276\220\000\000\000\000\000\000\243S\000\000\000\000\000\000!@\000\000\000\000\000\000\032\026\000\000\000\000\000\000\177\221\000\000\000\000\000\000\007{\000\000\000\000\000\000\267m\000\000\000\000\000\000\3752\000\000\000\000\000\000\327\236\000\000\000\000\000\000N&\000\000\000\000\000\000Z\243\000\000\000\000\000\000\377\'\000\000\000\000\000\000\2434\000\000\000\000\000\000b\016\000\000\000\000\000\000\306$\000\000\000\000\000\000\023J\000\000\000\000\000\000\310;\000\000\000\000\000\000 \037\000\000\000\000\000\000\3233\000\000\000\000\000\000\0060\000\000\000\000\000\000X\226\000\000\000\000\000\000\345\004\000\000\000\000\000\000\250j\000\000\000\000\000\000\374{\000\000\000\000\000\000qQ\000\000\000\000\000\000\211\202\000\000\000\000\000\000j<\000\000\000\000\000\000D\303\000\000\000\000\000\000X\265\000\000\000\000\000\000\222\t\000\000\000\000\000\000\331W\000\000\000\000\000\000\372\004\000\000\000\000\000\000k~\000\000\000\000\000\000\004q\000\000\000\000\000\000\231\002\000\000\000\000\000\000\205a\000\000\000\000\000\000\355\272\000\000\000\000\000\000^\245\000\000\000\000\000\000\375\266\000\000\000\000\000\0007H\000\000\000\000\000\000\261\263\000\000\000\000\000\000\263s\000\000\000\000\000\000\344G\000\000\000\000\000\000\2221\000\000\000\000\000\000N\013\000\000\000\000\000\000\304\"\000\000\000\000\000\000P\000\000\000\000\000\000\000f\n\000\000\000\000\000\000\220\245\000\000\000\000\000\000\227\240\000\000\000\000\000\000\365I\000\000\000\000\000\000\3349\000\000\000\000\000\000+\023\000\000\000\000\000\000\245_\000\000\000\000\000\0004\033\000\000\000\000\000\000\r`\000\000\000\000\000\000\273\277\000\000\000\000\000\000<\013\000\000\000\000\000\000\014c\000\000\000\000\000\000\305}\000\000\000\000\000\000-#\000\000\000\000\000\000{\234\000\000\000\000\000\000\013\215\000\000\000\000\000\000-\017\000\000\000\000\000\000y<\000\000\000\000\000\000\3334\000\000\000\000\000\000\340o\000\000\000\000\000\000\035\262\000\000\000\000\000\000|h\000\000\000\000\000\000\357\003\000\000\000\000\000\000\010*\000\000\000\000\000\000\014\240\000\000\000\000\000\000\246\036\000\000\000\000\000\000jJ\000\000\000\000\000\000e4\000\000\000\000\000\000\2279\000\000\000\000\000\000\341\234\000\000\000\000\000\000w\227\000\000\000\000\000\000\307\235\000\000\000\000\000\000\177\r\000\000\000\000\000\000P\207\000\000\000\000\000\000L\033\000\000\000\000\000\000\327{\000\000\000\000\000\000\2054\000\000\000\000\000\000\020\232\000\000\000\000\000\000G\034\000\000\000\000\000\000\037\242\000\000\000\000\000\000\241\023\000\000\000\000\000\000\203\222\000\000\000\000\000\000\306<\000\000\000\000\000\000\255\237\000\000\000\000\000\000\333\013\000\000\000\000\000\000-\265\000\000\000\000\000\000\343\250\000\000\000\000\000\000\250\235\000\000\000\000\000\000\237=\000\000\000\000\000\000\373F\000\000\000\000\000\000QL\000\000\000\000\000\000o\r\000\000\000\000\000\000\345\212\000\000\000\000\000\000\2660\000\000\000\000\000\000\225\243\000\000\000\000\000\000\223\254\000\000\000\000\000\000#\231\000\000\000\000\000\000\006}\000\000\000\000\000\000\331<\000\000\000\000\000\000\343D\000\000\000\000\000\000\004t\000\000\000\000\000\000\256\252\000\000\000\000\000\000\202S\000\000\000\000\000\000\025\036\000\000\000\000\000\000\306\213\000\000\000\000\000\0003\032\000\000\000\000\000\000\\H\000\000\000\000\000\000\303\007\000\000\000\000\000\000\342U\000\000\000\000\000\000\341\302\000\000\000\000\000\000\005\276\000\000\000\000\000\0008_\000\000\000\000\000\000\225g\000\000\000\000\000\000\250\224\000\000\000\000\000\000\346\027\000\000\000\000\000\000\254\004\000\000\000\000\000\000>\272\000\000\000\000\000\000D\233\000\000\000\000\000\000\315|\000\000\000\000\000\000\036\224\000\000\000\000\000\000\225O\000\000\000\000\000\000\227m\000\000\000\000\000\000\352\016\000\000\000\000\000\000\022\026\000\000\000\000\000\000\n\265\000\000\000\000\000\000\220@\000\000\000\000\000\000\200q\000\000\000\000\000\000\'g\000\000\000\000\000\000\0133\000\000\000\000\000\000]\247\000\000\000\000\000\000\030&\000\000\000\000\000\0002\250\000\000\000\000\000\000\307\217\000\000\000\000\000\000\231\271\000\000\000\000\000\000j\206\000\000\000\000\000\000\243\034\000\000\000\000\000\000\r\204\000\000\000\000\000\000\332\264\000\000\000\000\000\000Pt\000\000\000\000\000\000\222\244\000\000\000\000\000\000\372\\\000\000\000\000\000\000\364T\000\000\000\000\000\000\261\014\000\000\000\000\000\000\204\264\000\000\000\000\000\000\233\206\000\000\000\000\000\000\261\016\000\000\000\000\000\000;&\000\000\000\000\000\000\2337\000\000\000\000\000\000\300\n\000\000\000\000\000\000\004\210\000\000\000\000\000\000\031\244\000\000\000\000\000\000LI\000\000\000\000\000\000\272\210\000\000\000\000\000\000\035l\000\000\000\000\000\000\242\267\000\000\000\000\000\000=\205\000\000\000\000\000\000t]\000\000\000\000\000\000\013\276\000\000\000\000\000\000\324\006\000\000\000\000\000\000\242|\000\000\000\000\000\000\327X\000\000\000\000\000\000\223h\000\000\000\000\000\000\":\000\000\000\000\000\000]\243\000\000\000\000\000\000\215{\000\000\000\000\000\000\322\206\000\000\000\000\000\000\ns\000\000\000\000\000\000\211K\000\000\000\000\000\000\304J\000\000\000\000\000\000:C\000\000\000\000\000\000\246\021\000\000\000\000\000\000\201,\000\000\000\000\000\000\243$\000\000\000\000\000\000`_\000\000\000\000\000\000\230C\000\000\000\000\000\000\211\247\000\000\000\000\000\000\335\210\000\000\000\000\000\000\277<\000\000\000\000\000\000\304\001\000\000\000\000\000\0009t\000\000\000\000\000\000\240\231\000\000\000\000\000\000gL\000\000\000\000\000\000\225\205\000\000\000\000\000\000\334\227\000\000\000\000\000\000\303\037\000\000\000\000\000\000_\301\000\000\000\000\000\000\255X\000\000\000\000\000\000\256\233\000\000\000\000\000\000~-\000\000\000\000\000\000\347\023\000\000\000\000\000\000\317\003\000\000\000\000\000\000N\226\000\000\000\000\000\00054\000\000\000\000\000\000\024\253\000\000\000\000\000\000\265\206\000\000\000\000\000\000}\022\000\000\000\000\000\000\274u\000\000\000\000\000\000\367V\000\000\000\000\000\000;\254\000\000\000\000\000\000\2351\000\000\000\000\000\000\332\257\000\000\000\000\000\000}4\000\000\000\000\000\000\317\254\000\000\000\000\000\000G\r\000\000\000\000\000\000\303\031\000\000\000\000\000\000\231.\000\000\000\000\000\000W\233\000\000\000\000\000\000\010%\000\000\000\000\000\000\r\211\000\000\000\000\000\000\230\223\000\000\000\000\000\000\326\004\000\000\000\000\000\000\003n\000\000\000\000\000\000\272\274\000\000\000\000\000\000!3\000\000\000\000\000\000\335\035\000\000\000\000\000\000\377\233\000\000\000\000\000\000#}\000\000\000\000\000\000\251~\000\000\000\000\000\000Yn\000\000\000\000\000\000\330b\000\000\000\000\000\000\317,\000\000\000\000\000\000\2114\000\000\000\000\000\000\206;\000\000\000\000\000\000Q7\000\000\000\000\000\000\3042\000\000\000\000\000\000\013\303\000\000\000\000\000\000\350\241\000\000\000\000\000\000\032\220\000\000\000\000\000\000j\000\000\000\000\000\000\000v\227\000\000\000\000\000\000d\027\000\000\000\000\000\000\032\t\000\000\000\000\000\000(\030\000\000\000\000\000\000O\274\000\000\000\000\000\000\257+\000\000\000\000\000\000\017\264\000\000\000\000\000\000\250\264\000\000\000\000\000\000\211\260\000\000\000\000\000\000\n\277\000\000\000\000\000\000Qa\000\000\000\000\000\000\203\'\000\000\000\000\000\000\273\276\000\000\000\000\000\000x\200\000\000\000\000\000\000\342(\000\000\000\000\000\000BY\000\000\000\000\000\000\357\237\000\000\000\000\000\000\372\270\000\000\000\000\000\000\306_\000\000\000\000\000\000\325\256\000\000\000\000\000\000\261n\000\000\000\000\000\000\340\201\000\000\000\000\000\000\321\302\000\000\000\000\000\000(\235\000\000\000\000\000\000h\262\000\000\000\000\000\000\2375\000\000\000\000\000\000;!\000\000\000\000\000\000K\246\000\000\000\000\000\000%\003\000\000\000\000\000\000\257\024\000\000\000\000\000\000\2548\000\000\000\000\000\000\212z\000\000\000\000\000\000-J\000\000\000\000\000\000\236\206\000\000\000\000\000\000\221\241\000\000\000\000\000\000\005o\000\000\000\000\000\000\257O\000\000\000\000\000\000b\260\000\000\000\000\000\000\010V\000\000\000\000\000\000\2147\000\000\000\000\000\000\246\010\000\000\000\000\000\000H:\000\000\000\000\000\000=\021\000\000\000\000\000\000_\271\000\000\000\000\000\0001\031\000\000\000\000\000\000\266\265\000\000\000\000\000\000\374#\000\000\000\000\000\000\230]\000\000\000\000\000\000h\241\000\000\000\000\000\000\243x\000\000\000\000\000\000\304\033\000\000\000\000\000\000D7\000\000\000\000\000\000E\301\000\000\000\000\000\000:\273\000\000\000\000\000\000\367f\000\000\000\000\000\000PM\000\000\000\000\000\000\005\273\000\000\000\000\000\000H\203\000\000\000\000\000\000\3063\000\000\000\000\000\0007\274\000\000\000\000\000\000Zj\000\000\000\000\000\000\026U\000\000\000\000\000\000\025\027\000\000\000\000\000\000\251\177\000\000\000\000\000\000\305\275\000\000\000\000\000\000X\256\000\000\000\000\000\000\3308\000\000\000\000\000\000\177\277\000\000\000\000\000\000\223$\000\000\000\000\000\000\365f\000\000\000\000\000\000B\230\000\000\000\000\000\000\362*\000\000\000\000\000\000t\215\000\000\000\000\000\000Q,\000\000\000\000\000\000\312Z\000\000\000\000\000\000\363B\000\000\000\000\000\000>\r\000\000\000\000\000\000\264s\000\000\000\000\000\0005j\000\000\000\000\000\000\342\206\000\000\000\000\000\000^\"\000\000\000\000\000\000\222\301\000\000\000\000\000\0002\033\000\000\000\000\000\000\205\277\000\000\000\000\000\000\245\256\000\000\000\000\000\000\334\"\000\000\000\000\000\000R\002\000\000\000\000\000\0006\023\000\000\000\000\000\000yJ\000\000\000\000\000\000\333\001\000\000\000\000\000\000\006(\000\000\000\000\000\000\330o\000\000\000\000\000\000*H\000\000\000\000\000\000[\032\000\000\000\000\000\000\320A\000\000\000\000\000\000h\230\000\000\000\000\000\0005\221\000\000\000\000\000\000\225W\000\000\000\000\000\000\013\273\000\000\000\000\000\000T\006\000\000\000\000\000\000&\251\000\000\000\000\000\000\273\274\000\000\000\000\000\000\316\022\000\000\000\000\000\000\001q\000\000\000\000\000\000[\022\000\000\000\000\000\000\234\270\000\000\000\000\000\000*\025\000\000\000\000\000\000kL\000\000\000\000\000\000\354\261\000\000\000\000\000\000\370\263\000\000\000\000\000\000K\216\000\000\000\000\000\000\227\006\000\000\000\000\000\000\344\210\000\000\000\000\000\000\233r\000\000\000\000\000\000!T\000\000\000\000\000\000\373r\000\000\000\000\000\000\327u\000\000\000\000\000\000\210f\000\000\000\000\000\000\014p\000\000\000\000\000\000\007\261\000\000\000\000\000\000D\212\000\000\000\000\000\000\3022\000\000\000\000\000\000\234\271\000\000\000\000\000\000}!\000\000\000\000\000\000\314\213\000\000\000\000\000\000%\264\000\000\000\000\000\000\217$\000\000\000\000\000\000N<\000\000\000\000\000\000\227\244\000\000\000\000\000\000\227x\000\000\000\000\000\000\233=\000\000\000\000\000\000,\001\000\000\000\000\000\000\035g\000\000\000\000\000\000\032\204\000\000\000\000\000\000cH\000\000\000\000\000\000\301*\000\000\000\000\000\000\013\003\000\000\000\000\000\0003\024\000\000\000\000\000\000d\200\000\000\000\000\000\000CA\000\000\000\000\000\000s?\000\000\000\000\000\000\020k\000\000\000\000\000\000\266\031\000\000\000\000\000\000N\023\000\000\000\000\000\000\303v\000\000\000\000\000\000|\026\000\000\000\000\000\0008!\000\000\000\000\000\000\031\027\000\000\000\000\000\000Cr\000\000\000\000\000\000\256\265\000\000\000\000\000\000\n\217\000\000\000\000\000\000\303(\000\000\000\000\000\000J\201\000\000\000\000\000\000L[\000\000\000\000\000\000\310\007\000\000\000\000\000\000k{\000\000\000\000\000\0003V\000\000\000\000\000\000B\030\000\000\000\000\000\000=x\000\000\000\000\000\000\346\263\000\000\000\000\000\000\230\244\000\000\000\000\000\000\364Y\000\000\000\000\000\000\270*\000\000\000\000\000\000\217\252\000\000\000\000\000\000\304\235\000\000\000\000\000\0005N\000\000\000\000\000\000\251C\000\000\000\000\000\000\177\233\000\000\000\000\000\000\264\272\000\000\000\000\000\000\030\270\000\000\000\000\000\000K\n\000\000\000\000\000\000\223c\000\000\000\000\000\000\371\215\000\000\000\000\000\0007\001\000\000\000\000\000\000G\246\000\000\000\000\000\000ux\000\000\000\000\000\0003\222\000\000\000\000\000\000\304,\000\000\000\000\000\000\334^\000\000\000\000\000\000\235b\000\000\000\000\000\000J\206\000\000\000\000\000\000\372\017\000\000\000\000\000\000\024\003\000\000\000\000\000\000\022\253\000\000\000\000\000\000\251[\000\000\000\000\000\000\352k\000\000\000\000\000\0007\034\000\000\000\000\000\000\1770\000\000\000\000\000\000>\033\000\000\000\000\000\000YB\000\000\000\000\000\000\262\264\000\000\000\000\000\000\006`\000\000\000\000\000\000]\266\000\000\000\000\000\000\245\001\000\000\000\000\000\000^\242\000\000\000\000\000\000\261g\000\000\000\000\000\0007\001\000\000\000\000\000\000\023<\000\000\000\000\000\000\302N\000\000\000\000\000\000N/\000\000\000\000\000\000\256P\000\000\000\000\000\000\020\035\000\000\000\000\000\000,Y\000\000\000\000\000\000-\'\000\000\000\000\000\000\254\261\000\000\000\000\000\000p\"\000\000\000\000\000\000Q\212\000\000\000\000\000\000\024D\000\000\000\000\000\000mw\000\000\000\000\000\000\376T\000\000\000\000\000\000\210n\000\000\000\000\000\000\235\276\000\000\000\000\000\000\004D\000\000\000\000\000\000}8\000\000\000\000\000\000 \000\000\000\000\000\000\000y\n\000\000\000\000\000\000n8\000\000\000\000\000\000\306\205\000\000\000\000\000\000Ha\000\000\000\000\000\000\262i\000\000\000\000\000\000\322\210\000\000\000\000\000\000\"\033\000\000\000\000\000\000ab\000\000\000\000\000\000V\033\000\000\000\000\000\000\024\260\000\000\000\000\000\000\324\'\000\000\000\000\000\000\\-\000\000\000\000\000\000\253\'\000\000\000\000\000\000\025\255\000\000\000\000\000\000\3765\000\000\000\000\000\000\203;\000\000\000\000\000\0003\016\000\000\000\000\000\000\326c\000\000\000\000\000\000K\020\000\000\000\000\000\000{\220\000\000\000\000\000\000\201\023\000\000\000\000\000\000t\031\000\000\000\000\000\000b9\000\000\000\000\000\000\366\020\000\000\000\000\000\000\000T\000\000\000\000\000\000\002U\000\000\000\000\000\000\306\226\000\000\000\000\000\000N\010\000\000\000\000\000\000\010r\000\000\000\000\000\0008R\000\000\000\000\000\000\322\020\000\000\000\000\000\000\260C\000\000\000\000\000\000\241\001\000\000\000\000\000\000\000\013\000\000\000\000\000\000\206g\000\000\000\000\000\000<\017\000\000\000\000\000\000 \021\000\000\000\000\000\000#}\000\000\000\000\000\000H\212\000\000\000\000\000\000\357\250\000\000\000\000\000\000\346\204\000\000\000\000\000\000\370\006\000\000\000\000\000\000\3273\000\000\000\000\000\000\314\237\000\000\000\000\000\000a\177\000\000\000\000\000\000\360<\000\000\000\000\000\000E`\000\000\000\000\000\000\321X\000\000\000\000\000\000V<\000\000\000\000\000\000\341F\000\000\000\000\000\000\200D\000\000\000\000\000\000\217\273\000\000\000\000\000\000\344s\000\000\000\000\000\000\2709\000\000\000\000\000\000\342\204\000\000\000\000\000\000\030w\000\000\000\000\000\000\025r\000\000\000\000\000\000I\213\000\000\000\000\000\000\250M\000\000\000\000\000\000\376\034\000\000\000\000\000\000Ry\000\000\000\000\000\000\373\241\000\000\000\000\000\000\217\224\000\000\000\000\000\000.p\000\000\000\000\000\000\004\264\000\000\000\000\000\000\316R\000\000\000\000\000\000c\272\000\000\000\000\000\000P\'\000\000\000\000\000\000q\207\000\000\000\000\000\000\005W\000\000\000\000\000\000\301\025\000\000\000\000\000\000\372\033\000\000\000\000\000\00048\000\000\000\000\000\000\007R\000\000\000\000\000\000\334\246\000\000\000\000\000\000i\017\000\000\000\000\000\000\370\032\000\000\000\000\000\000\346O\000\000\000\000\000\000\2306\000\000\000\000\000\000\231*\000\000\000\000\000\000\3206\000\000\000\000\000\0007)\000\000\000\000\000\000\016Z\000\000\000\000\000\000\023\223\000\000\000\000\000\000\236\032\000\000\000\000\000\000\263\227\000\000\000\000\000\000\026\243\000\000\000\000\000\000\262:\000\000\000\000\000\000\342#\000\000\000\000\000\000\247\302\000\000\000\000\000\000wO\000\000\000\000\000\000M\262\000\000\000\000\000\0007\240\000\000\000\000\000\000%l\000\000\000\000\000\000}W\000\000\000\000\000\000t\252\000\000\000\000\000\000\2503\000\000\000\000\000\000\213\003\000\000\000\000\000\000CO\000\000\000\000\000\000df\000\000\000\000\000\000s\177\000\000\000\000\000\000M\263\000\000\000\000\000\000\355H\000\000\000\000\000\000\3113\000\000\000\000\000\0005[\000\000\000\000\000\000\372\253\000\000\000\000\000\000\215\030\000\000\000\000\000\000M[\000\000\000\000\000\000(\205\000\000\000\000\000\000\334\021\000\000\000\000\000\000\033n\000\000\000\000\000\000\2228\000\000\000\000\000\000\037P\000\000\000\000\000\000.\177\000\000\000\000\000\000\306\026\000\000\000\000\000\000\007y\000\000\000\000\000\000\207\270\000\000\000\000\000\000\2669\000\000\000\000\000\000\034\031\000\000\000\000\000\000\365\215\000\000\000\000\000\000\347\250\000\000\000\000\000\000\221R\000\000\000\000\000\000Dq\000\000\000\000\000\000\004I\000\000\000\000\000\000\2437\000\000\000\000\000\000\254\001\000\000\000\000\000\000%\\\000\000\000\000\000\000\207\024\000\000\000\000\000\000\271\003\000\000\000\000\000\0003\216\000\000\000\000\000\000M\211\000\000\000\000\000\000\016\027\000\000\000\000\000\000\305(\000\000\000\000\000\000\366L\000\000\000\000\000\000\216W\000\000\000\000\000\000\364\231\000\000\000\000\000\000c\204\000\000\000\000\000\000\320U\000\000\000\000\000\000\323\030\000\000\000\000\000\000&L\000\000\000\000\000\000\231I\000\000\000\000\000\000\376\243\000\000\000\000\000\000\274\265\000\000\000\000\000\000\335\006\000\000\000\000\000\000\351\204\000\000\000\000\000\000Nm\000\000\000\000\000\000\250f\000\000\000\000\000\000\031@\000\000\000\000\000\000\244a\000\000\000\000\000\000\021\273\000\000\000\000\000\000lb\000\000\000\000\000\000\2016\000\000\000\000\000\000\224\032\000\000\000\000\000\000\005U\000\000\000\000\000\000O\263\000\000\000\000\000\000wp\000\000\000\000\000\000j~\000\000\000\000\000\000\225m\000\000\000\000\000\000\323p\000\000\000\000\000\000T\023\000\000\000\000\000\000\377v\000\000\000\000\000\000Oy\000\000\000\000\000\000\267o\000\000\000\000\000\000\263&\000\000\000\000\000\000F\\\000\000\000\000\000\000qo\000\000\000\000\000\000\246\241\000\000\000\000\000\000\265\026\000\000\000\000\000\000\001\224\000\000\000\000\000\000F\n\000\000\000\000\000\000\3313\000\000\000\000\000\000\325\273\000\000\000\000\000\000\232Z\000\000\000\000\000\000mk\000\000\000\000\000\000\243s\000\000\000\000\000\000\351e\000\000\000\000\000\000\271\016\000\000\000\000\000\000\245x\000\000\000\000\000\000@\205\000\000\000\000\000\000\314\t\000\000\000\000\000\000\274\002\000\000\000\000\000\000\255\211\000\000\000\000\000\000\217\223\000\000\000\000\000\000\330\016\000\000\000\000\000\000z \000\000\000\000\000\000\007~\000\000\000\000\000\000\253=\000\000\000\000\000\000+!\000\000\000\000\000\000\235\210\000\000\000\000\000\000E\006\000\000\000\000\000\000\306j\000\000\000\000\000\000Ah\000\000\000\000\000\000\310\022\000\000\000\000\000\000\'`\000\000\000\000\000\000c\004\000\000\000\000\000\000\027\205\000\000\000\000\000\000\212\214\000\000\000\000\000\000\364_\000\000\000\000\000\000\320\n\000\000\000\000\000\000\316U\000\000\000\000\000\000\373t\000\000\000\000\000\000\336N\000\000\000\000\000\000(w\000\000\000\000\000\000\215\272\000\000\000\000\000\000\227\250\000\000\000\000\000\000U\264\000\000\000\000\000\000\273 \000\000\000\000\000\000\377>\000\000\000\000\000\000\270\263\000\000\000\000\000\000\217\274\000\000\000\000\000\000\205A\000\000\000\000\000\000\351~\000\000\000\000\000\000\330\204\000\000\000\000\000\000\207\220\000\000\000\000\000\000\324[\000\000\000\000\000\000\301 \000\000\000\000\000\000q\232\000\000\000\000\000\000\272\005\000\000\000\000\000\000Q}\000\000\000\000\000\000\347\207\000\000\000\000\000\000=\220\000\000\000\000\000\000Q\005\000\000\000\000\000\000\355\016\000\000\000\000\000\000\033\243\000\000\000\000\000\000\032)\000\000\000\000\000\000<Q\000\000\000\000\000\000\234\256\000\000\000\000\000\000\2145\000\000\000\000\000\000S~\000\000\000\000\000\000=X\000\000\000\000\000\000K1\000\000\000\000\000\0002\017\000\000\000\000\000\000$\264\000\000\000\000\000\000\"`\000\000\000\000\000\000\'\034\000\000\000\000\000\000]\177\000\000\000\000\000\000\024k\000\000\000\000\000\000C\035\000\000\000\000\000\000\247\260\000\000\000\000\000\000\034\241\000\000\000\000\000\000\3162\000\000\000\000\000\000\001\010\000\000\000\000\000\000e\275\000\000\000\000\000\000\253J\000\000\000\000\000\000\020\256\000\000\000\000\000\000B!\000\000\000\000\000\000\327\031\000\000\000\000\000\000\204\004\000\000\000\000\000\000\327\206\000\000\000\000\000\000\000\033\000\000\000\000\000\000\367]\000\000\000\000\000\000$D\000\000\000\000\000\000\2600\000\000\000\000\000\000\263{\000\000\000\000\000\000H\006\000\000\000\000\000\000@j\000\000\000\000\000\000\353\257\000\000\000\000\000\000\3442\000\000\000\000\000\000\'8\000\000\000\000\000\000\225\227\000\000\000\000\000\000\020\'\000\000\000\000\000\000\325 \000\000\000\000\000\0005\211\000\000\000\000\000\000\215V\000\000\000\000\000\000|p\000\000\000\000\000\000\305\024\000\000\000\000\000\000\221<\000\000\000\000\000\000s\017\000\000\000\000\000\000|\216\000\000\000\000\000\000\365\"\000\000\000\000\000\000\230\277\000\000\000\000\000\000\253&\000\000\000\000\000\000\247\003\000\000\000\000\000\000\267\r\000\000\000\000\000\000\027\254\000\000\000\000\000\000\252M\000\000\000\000\000\000\243i\000\000\000\000\000\000\264\230\000\000\000\000\000\000&\217\000\000\000\000\000\000.k\000\000\000\000\000\000\301V\000\000\000\000\000\000g\253\000\000\000\000\000\000\261y\000\000\000\000\000\000*1\000\000\000\000\000\000\334/\000\000\000\000\000\000\320\264\000\000\000\000\000\000rA\000\000\000\000\000\000\242\025\000\000\000\000\000\000\375\242\000\000\000\000\000\000\364h\000\000\000\000\000\000_\027\000\000\000\000\000\000\276I\000\000\000\000\000\000\211\241\000\000\000\000\000\000(\233\000\000\000\000\000\0007l\000\000\000\000\000\000c\233\000\000\000\000\000\000\306\022\000\000\000\000\000\000\031\205\000\000\000\000\000\000Ey\000\000\000\000\000\000\211\300\000\000\000\000\000\000\232\254\000\000\000\000\000\000\004\212\000\000\000\000\000\000\225\261\000\000\000\000\000\000\352\271\000\000\000\000\000\000\272\n\000\000\000\000\000\000j\257\000\000\000\000\000\000,\300\000\000\000\000\000\000\250S\000\000\000\000\000\000\006\253\000\000\000\000\000\000X\215\000\000\000\000\000\000\363\022\000\000\000\000\000\000\351M\000\000\000\000\000\000jN\000\000\000\000\000\000\233H\000\000\000\000\000\000$Q\000\000\000\000\000\000\371\016\000\000\000\000\000\000ze\000\000\000\000\000\000\332A\000\000\000\000\000\000\354<\000\000\000\000\000\000\200t\000\000\000\000\000\0004\241\000\000\000\000\000\000\203\273\000\000\000\000\000\000\271S\000\000\000\000\000\000\316\200\000\000\000\000\000\000[r\000\000\000\000\000\000\277%\000\000\000\000\000\000\033\037\000\000\000\000\000\000D\003\000\000\000\000\000\000\3110\000\000\000\000\000\00049\000\000\000\000\000\000M]\000\000\000\000\000\000\245\210\000\000\000\000\000\000\362\274\000\000\000\000\000\000\036\010\000\000\000\000\000\000\025l\000\000\000\000\000\0000\227\000\000\000\000\000\000\3142\000\000\000\000\000\000\305d\000\000\000\000\000\000`D\000\000\000\000\000\000\t\257\000\000\000\000\000\000\032Q\000\000\000\000\000\000EP\000\000\000\000\000\000(\201\000\000\000\000\000\000\017\247\000\000\000\000\000\000@V\000\000\000\000\000\000\260\"\000\000\000\000\000\000\003\032\000\000\000\000\000\0009l\000\000\000\000\000\000\377\240\000\000\000\000\000\000\230\225\000\000\000\000\000\000\340\202\000\000\000\000\000\000\303\031\000\000\000\000\000\000`\035\000\000\000\000\000\000\nT\000\000\000\000\000\000\024\203\000\000\000\000\000\000\307\003\000\000\000\000\000\000\270\201\000\000\000\000\000\000\363\252\000\000\000\000\000\000\345N\000\000\000\000\000\000\255\271\000\000\000\000\000\000@\211\000\000\000\000\000\000\030\036\000\000\000\000\000\000\356\212\000\000\000\000\000\000w\265\000\000\000\000\000\000?.\000\000\000\000\000\000\261\200\000\000\000\000\000\000\206\273\000\000\000\000\000\000\\b\000\000\000\000\000\000\3008\000\000\000\000\000\000!\033\000\000\000\000\000\000\3347\000\000\000\000\000\000\360?\000\000\000\000\000\000\326\200\000\000\000\000\000\000\033}\000\000\000\000\000\000X1\000\000\000\000\000\000^\003\000\000\000\000\000\000\005@\000\000\000\000\000\000`\257\000\000\000\000\000\000\274\033\000\000\000\000\000\000\314V\000\000\000\000\000\000\341\301\000\000\000\000\000\000\2207\000\000\000\000\000\000\347\302\000\000\000\000\000\000\330g\000\000\000\000\000\0008.\000\000\000\000\000\000\361\022\000\000\000\000\000\000l\222\000\000\000\000\000\000w\271\000\000\000\000\000\000\364\016\000\000\000\000\000\000\324\211\000\000\000\000\000\000e:\000\000\000\000\000\000Gq\000\000\000\000\000\000\367\020\000\000\000\000\000\000\021\255\000\000\000\000\000\000\320\206\000\000\000\000\000\000\375h\000\000\000\000\000\000?\002\000\000\000\000\000\000\354\017\000\000\000\000\000\000]V\000\000\000\000\000\000\214O\000\000\000\000\000\000\337n\000\000\000\000\000\000\203\010\000\000\000\000\000\000\001\220\000\000\000\000\000\000<\t\000\000\000\000\000\000\342\244\000\000\000\000\000\000\202\223\000\000\000\000\000\000b\254\000\000\000\000\000\000\261z\000\000\000\000\000\000\322\024\000\000\000\000\000\000\022\261\000\000\000\000\000\000\316r\000\000\000\000\000\000\374c\000\000\000\000\000\000\362a\000\000\000\000\000\000\263\302\000\000\000\000\000\000\016y\000\000\000\000\000\000\214\003\000\000\000\000\000\000\324\215\000\000\000\000\000\000\264(\000\000\000\000\000\000mo\000\000\000\000\000\000\305\020\000\000\000\000\000\000\221\033\000\000\000\000\000\000\341r\000\000\000\000\000\000E\177\000\000\000\000\000\000<z\000\000\000\000\000\000\206\250\000\000\000\000\000\000\331$\000\000\000\000\000\000.\207\000\000\000\000\000\000k\265\000\000\000\000\000\000(;\000\000\000\000\000\000\365W\000\000\000\000\000\000\212l\000\000\000\000\000\000(v\000\000\000\000\000\000\250\231\000\000\000\000\000\000\332\262\000\000\000\000\000\000\t\215\000\000\000\000\000\0003\236\000\000\000\000\000\000\213]\000\000\000\000\000\000\206v\000\000\000\000\000\000\307d\000\000\000\000\000\000\034\005\000\000\000\000\000\000\'\240\000\000\000\000\000\000LX\000\000\000\000\000\000\375\220\000\000\000\000\000\000a\032\000\000\000\000\000\000y\215\000\000\000\000\000\000\263\216\000\000\000\000\000\000Ev\000\000\000\000\000\000\365\273\000\000\000\000\000\000N\020\000\000\000\000\000\000l&\000\000\000\000\000\000\311)\000\000\000\000\000\0009\264\000\000\000\000\000\000\227]\000\000\000\000\000\000\322Q\000\000\000\000\000\000\006\231\000\000\000\000\000\000H(\000\000\000\000\000\000\215\277\000\000\000\000\000\000\241\035\000\000\000\000\000\000d\036\000\000\000\000\000\000t\037\000\000\000\000\000\000\023\277\000\000\000\000\000\000I\247\000\000\000\000\000\000\2402\000\000\000\000\000\000|\276\000\000\000\000\000\000\354\001\000\000\000\000\000\000)J\000\000\000\000\000\000b\263\000\000\000\000\000\000\022\037\000\000\000\000\000\000*\202\000\000\000\000\000\000\214\271\000\000\000\000\000\000AN\000\000\000\000\000\000\0265\000\000\000\000\000\000\242w\000\000\000\000\000\000J`\000\000\000\000\000\000\004\253\000\000\000\000\000\000\320\213\000\000\000\000\000\000\014&\000\000\000\000\000\000\326^\000\000\000\000\000\000\206Q\000\000\000\000\000\000\302J\000\000\000\000\000\000P!\000\000\000\000\000\000l\263\000\000\000\000\000\000\376\217\000\000\000\000\000\000\301\023\000\000\000\000\000\000r\301\000\000\000\000\000\000\213=\000\000\000\000\000\000\256/\000\000\000\000\000\0002\201\000\000\000\000\000\000;5\000\000\000\000\000\000\200\031\000\000\000\000\000\000\312\250\000\000\000\000\000\000K/\000\000\000\000\000\0003\244\000\000\000\000\000\000\233s\000\000\000\000\000\000O{\000\000\000\000\000\000u\273\000\000\000\000\000\000X^\000\000\000\000\000\000\216\177\000\000\000\000\000\000CC\000\000\000\000\000\000\347\177\000\000\000\000\000\000\2168\000\000\000\000\000\000\221~\000\000\000\000\000\0007`\000\000\000\000\000\000;\014\000\000\000\000\000\000\262\252\000\000\000\000\000\000Z\037\000\000\000\000\000\000:p\000\000\000\000\000\000\300e\000\000\000\000\000\000\200\243\000\000\000\000\000\000\2270\000\000\000\000\000\000#\246\000\000\000\000\000\000\333;\000\000\000\000\000\000\356P\000\000\000\000\000\000\210r\000\000\000\000\000\000\367o\000\000\000\000\000\000\311\030\000\000\000\000\000\000j\021\000\000\000\000\000\000\276\265\000\000\000\000\000\000$ \000\000\000\000\000\000<\005\000\000\000\000\000\000\326\007\000\000\000\000\000\000\3374\000\000\000\000\000\000\242\204\000\000\000\000\000\000\263}\000\000\000\000\000\000;\002\000\000\000\000\000\000\253M\000\000\000\000\000\000\025\232\000\000\000\000\000\000\251\274\000\000\000\000\000\000K\300\000\000\000\000\000\000I\037\000\000\000\000\000\000<\260\000\000\000\000\000\000\371\020\000\000\000\000\000\000<&\000\000\000\000\000\000\245I\000\000\000\000\000\000\320\251\000\000\000\000\000\0000F\000\000\000\000\000\000\365x\000\000\000\000\000\000\311~\000\000\000\000\000\000E\020\000\000\000\000\000\000:s\000\000\000\000\000\000\202\225\000\000\000\000\000\000}\037\000\000\000\000\000\000PS\000\000\000\000\000\000\362\016\000\000\000\000\000\000c\221\000\000\000\000\000\000\\8\000\000\000\000\000\000\025<\000\000\000\000\000\000\214]\000\000\000\000\000\000*y\000\000\000\000\000\000\262\016\000\000\000\000\000\000@\004\000\000\000\000\000\000\037\241\000\000\000\000\000\000\207\"\000\000\000\000\000\000\255<\000\000\000\000\000\000\342\204\000\000\000\000\000\000\237\226\000\000\000\000\000\000\0242\000\000\000\000\000\000\254G\000\000\000\000\000\000\310\273\000\000\000\000\000\000Q\254\000\000\000\000\000\000 \302\000\000\000\000\000\0001c\000\000\000\000\000\000\343}\000\000\000\000\000\000,\010\000\000\000\000\000\000<,\000\000\000\000\000\000\311\252\000\000\000\000\000\000\204\251\000\000\000\000\000\000\216/\000\000\000\000\000\000}\"\000\000\000\000\000\000G\234\000\000\000\000\000\000\350\216\000\000\000\000\000\000\232C\000\000\000\000\000\000BT\000\000\000\000\000\000\273\260\000\000\000\000\000\000|~\000\000\000\000\000\000\316\273\000\000\000\000\000\000\311\221\000\000\000\000\000\000\341O\000\000\000\000\000\000Me\000\000\000\000\000\000\247M\000\000\000\000\000\000\260B\000\000\000\000\000\000\213;\000\000\000\000\000\000\222G\000\000\000\000\000\000lR\000\000\000\000\000\000\210\027\000\000\000\000\000\000\034\006\000\000\000\000\000\000\214I\000\000\000\000\000\000\233\025\000\000\000\000\000\000\267\260\000\000\000\000\000\000\271\222\000\000\000\000\000\000?\003\000\000\000\000\000\000\366V\000\000\000\000\000\000\242\254\000\000\000\000\000\000\375{\000\000\000\000\000\000\260\256\000\000\000\000\000\000k\253\000\000\000\000\000\000\360\007\000\000\000\000\000\000wU\000\000\000\000\000\000dn\000\000\000\000\000\000\363v\000\000\000\000\000\000\246\034\000\000\000\000\000\000\332\\\000\000\000\000\000\000|`\000\000\000\000\000\000\221p\000\000\000\000\000\000\230\032\000\000\000\000\000\000>2\000\000\000\000\000\000$\201\000\000\000\000\000\000\275\252\000\000\000\000\000\000\260\027\000\000\000\000\000\000RD\000\000\000\000\000\000\372\211\000\000\000\000\000\000\236P\000\000\000\000\000\000\020;\000\000\000\000\000\0002T\000\000\000\000\000\000\203q\000\000\000\000\000\000w8\000\000\000\000\000\000do\000\000\000\000\000\000\342\264\000\000\000\000\000\000W\234\000\000\000\000\000\000s\260\000\000\000\000\000\000A\226\000\000\000\000\000\000\300s\000\000\000\000\000\000\277\256\000\000\000\000\000\000q>\000\000\000\000\000\000\217\255\000\000\000\000\000\000\304\005\000\000\000\000\000\0007C\000\000\000\000\000\000\263R\000\000\000\000\000\000\263\177\000\000\000\000\000\000\361\244\000\000\000\000\000\000\345*\000\000\000\000\000\000\3777\000\000\000\000\000\000\253@\000\000\000\000\000\000\261O\000\000\000\000\000\000C\263\000\000\000\000\000\000Z\222\000\000\000\000\000\000%%\000\000\000\000\000\000\3512\000\000\000\000\000\000x7\000\000\000\000\000\00039\000\000\000\000\000\000$f\000\000\000\000\000\000F0\000\000\000\000\000\000\332t\000\000\000\000\000\000\254A\000\000\000\000\000\000\364^\000\000\000\000\000\000\222E\000\000\000\000\000\000\343(\000\000\000\000\000\000\026\'\000\000\000\000\000\000c\275\000\000\000\000\000\000\200p\000\000\000\000\000\000BQ\000\000\000\000\000\000\257F\000\000\000\000\000\000\314\010\000\000\000\000\000\000\344\231\000\000\000\000\000\000[\264\000\000\000\000\000\000\014\252\000\000\000\000\000\000\255G\000\000\000\000\000\000!\272\000\000\000\000\000\000\226\022\000\000\000\000\000\000g\207\000\000\000\000\000\000\316l\000\000\000\000\000\000t\205\000\000\000\000\000\000I-\000\000\000\000\000\000\201\272\000\000\000\000\000\000\211\013\000\000\000\000\000\000\021h\000\000\000\000\000\000\316\010\000\000\000\000\000\0004\247\000\000\000\000\000\000hd\000\000\000\000\000\000Q\242\000\000\000\000\000\000js\000\000\000\000\000\000\255\006\000\000\000\000\000\000\036:\000\000\000\000\000\000\263~\000\000\000\000\000\000\313q\000\000\000\000\000\000\342\034\000\000\000\000\000\000H3\000\000\000\000\000\000Q6\000\000\000\000\000\000\003B\000\000\000\000\000\000Q9\000\000\000\000\000\000~\037\000\000\000\000\000\000\021l\000\000\000\000\000\000\360O\000\000\000\000\000\000U%\000\000\000\000\000\000Et\000\000\000\000\000\000GS\000\000\000\000\000\00007\000\000\000\000\000\000i\277\000\000\000\000\000\000\035\271\000\000\000\000\000\000\303\243\000\000\000\000\000\000\033R\000\000\000\000\000\000\036=\000\000\000\000\000\000n\271\000\000\000\000\000\000\375\210\000\000\000\000\000\000\320\217\000\000\000\000\000\000EO\000\000\000\000\000\000I\272\000\000\000\000\000\000\324\205\000\000\000\000\000\000p\201\000\000\000\000\000\000\333\277\000\000\000\000\000\000U\\\000\000\000\000\000\000\234\177\000\000\000\000\000\000\317\234\000\000\000\000\000\000q6\000\000\000\000\000\000EY\000\000\000\000\000\000\226[\000\000\000\000\000\000sj\000\000\000\000\000\000\025y\000\000\000\000\000\000\311\302\000\000\000\000\000\000\273\225\000\000\000\000\000\000\305\216\000\000\000\000\000\000\035\030\000\000\000\000\000\000&\257\000\000\000\000\000\000\3137\000\000\000\000\000\000\247\255\000\000\000\000\000\000\332U\000\000\000\000\000\000]\213\000\000\000\000\000\000\016\303\000\000\000\000\000\000\255U\000\000\000\000\000\000\314\207\000\000\000\000\000\000\210A\000\000\000\000\000\000\241\r\000\000\000\000\000\000\301\235\000\000\000\000\000\000\251#\000\000\000\000\000\000\216\241\000\000\000\000\000\0000U\000\000\000\000\000\000\272=\000\000\000\000\000\000\204\016\000\000\000\000\000\000\335=\000\000\000\000\000\000\245\014\000\000\000\000\000\000e+\000\000\000\000\000\0009Y\000\000\000\000\000\000\265\222\000\000\000\000\000\000\302\236\000\000\000\000\000\000\325\257\000\000\000\000\000\000\337\254\000\000\000\000\000\000\204\254\000\000\000\000\000\000\"\031\000\000\000\000\000\000\r\271\000\000\000\000\000\000\241\230\000\000\000\000\000\000\275\231\000\000\000\000\000\000\333)\000\000\000\000\000\000\341;\000\000\000\000\000\000\315F\000\000\000\000\000\000\355N\000\000\000\000\000\000\205\006\000\000\000\000\000\000\344I\000\000\000\000\000\000W\030\000\000\000\000\000\000\345\273\000\000\000\000\000\000\223\271\000\000\000\000\000\000EO\000\000\000\000\000\000\207\013\000\000\000\000\000\000\2612\000\000\000\000\000\000\250\027\000\000\000\000\000\000\377N\000\000\000\000\000\000\270\231\000\000\000\000\000\000\355\256\000\000\000\000\000\000JG\000\000\000\000\000\000\023G\000\000\000\000\000\000\213\302\000\000\000\000\000\000\005f\000\000\000\000\000\000\027J\000\000\000\000\000\000r\004\000\000\000\000\000\000\270\300\000\000\000\000\000\000\023\223\000\000\000\000\000\000.6\000\000\000\000\000\000+r\000\000\000\000\000\000\376 \000\000\000\000\000\000\240^\000\000\000\000\000\000\206\226\000\000\000\000\000\000W\030\000\000\000\000\000\000\372N\000\000\000\000\000\000\031\233\000\000\000\000\000\000\323\222\000\000\000\000\000\000O\250\000\000\000\000\000\000\023\000\000\000\000\000\000\000OP\000\000\000\000\000\000\205\014\000\000\000\000\000\000\3014\000\000\000\000\000\000\311Y\000\000\000\000\000\000\233\214\000\000\000\000\000\000\314\270\000\000\000\000\000\000U\266\000\000\000\000\000\000\254\265\000\000\000\000\000\000\246\202\000\000\000\000\000\000\030\026\000\000\000\000\000\000\324\260\000\000\000\000\000\000\027A\000\000\000\000\000\000\336\017\000\000\000\000\000\000\315\t\000\000\000\000\000\000RU\000\000\000\000\000\000\244&\000\000\000\000\000\00095\000\000\000\000\000\000\005\004\000\000\000\000\000\000\202\021\000\000\000\000\000\000)C\000\000\000\000\000\000\2615\000\000\000\000\000\000\021>\000\000\000\000\000\000\375)\000\000\000\000\000\000\335m\000\000\000\000\000\000L\n\000\000\000\000\000\000\255\265\000\000\000\000\000\000f2\000\000\000\000\000\000\364\n\000\000\000\000\000\000k\\\000\000\000\000\000\000\210?\000\000\000\000\000\000\331K\000\000\000\000\000\000~\235\000\000\000\000\000\000\006s\000\000\000\000\000\000F{\000\000\000\000\000\000G\275\000\000\000\000\000\0008F\000\000\000\000\000\000u.\000\000\000\000\000\000\344@\000\000\000\000\000\000/\014\000\000\000\000\000\000,k\000\000\000\000\000\000\330I\000\000\000\000\000\000;\032\000\000\000\000\000\000\362\301\000\000\000\000\000\000\252S\000\000\000\000\000\000\274>\000\000\000\000\000\000\337:\000\000\000\000\000\000%\261\000\000\000\000\000\000J\001\000\000\000\000\000\0005\247\000\000\000\000\000\000\302=\000\000\000\000\000\000\313G\000\000\000\000\000\0002g\000\000\000\000\000\000\233\256\000\000\000\000\000\000\243`\000\000\000\000\000\000K[\000\000\000\000\000\000,r\000\000\000\000\000\000\257\226\000\000\000\000\000\000\357`\000\000\000\000\000\000\274/\000\000\000\000\000\000&\231\000\000\000\000\000\000\243_\000\000\000\000\000\000\036^\000\000\000\000\000\0001\r\000\000\000\000\000\000\313\245\000\000\000\000\000\000U\276\000\000\000\000\000\000\036\232\000\000\000\000\000\000\310\007\000\000\000\000\000\000\331}\000\000\000\000\000\000\311\206\000\000\000\000\000\000yS\000\000\000\000\000\000K\246\000\000\000\000\000\000|B\000\000\000\000\000\000\374\027\000\000\000\000\000\000&\r\000\000\000\000\000\000\223f\000\000\000\000\000\000\037\026\000\000\000\000\000\000\377e\000\000\000\000\000\000\227\267\000\000\000\000\000\000N#\000\000\000\000\000\000{I\000\000\000\000\000\000\307\263\000\000\000\000\000\000X\227\000\000\000\000\000\000\274#\000\000\000\000\000\000\333\205\000\000\000\000\000\000\307/\000\000\000\000\000\000\333F\000\000\000\000\000\000\222\021\000\000\000\000\000\000p\215\000\000\000\000\000\000`\034\000\000\000\000\000\000\014-\000\000\000\000\000\000\300\212\000\000\000\000\000\000\212O\000\000\000\000\000\000\034\201\000\000\000\000\000\000nt\000\000\000\000\000\000\240~\000\000\000\000\000\000$\001\000\000\000\000\000\000\005\032\000\000\000\000\000\000\033@\000\000\000\000\000\000)\257\000\000\000\000\000\000\330=\000\000\000\000\000\000\3052\000\000\000\000\000\000\036i\000\000\000\000\000\000\377\205\000\000\000\000\000\000\200\221\000\000\000\000\000\0000^\000\000\000\000\000\000<\236\000\000\000\000\000\000V\r\000\000\000\000\000\000J?\000\000\000\000\000\000AP\000\000\000\000\000\000\241P\000\000\000\000\000\000\251\006\000\000\000\000\000\000{\243\000\000\000\000\000\0008\272\000\000\000\000\000\000\033\246\000\000\000\000\000\000\242o\000\000\000\000\000\000$\301\000\000\000\000\000\000\000\030\000\000\000\000\000\000\004\273\000\000\000\000\000\000_r\000\000\000\000\000\000$\026\000\000\000\000\000\000\330\243\000\000\000\000\000\000>\272\000\000\000\000\000\000\363u\000\000\000\000\000\000\315\251\000\000\000\000\000\000&O\000\000\000\000\000\000^ \000\000\000\000\000\000\346\211\000\000\000\000\000\000\237\204\000\000\000\000\000\000\0039\000\000\000\000\000\000\005S\000\000\000\000\000\000U9\000\000\000\000\000\000k\276\000\000\000\000\000\000\326\220\000\000\000\000\000\000-\221\000\000\000\000\000\000s}\000\000\000\000\000\000\303\014\000\000\000\000\000\000\325N\000\000\000\000\000\000\264L\000\000\000\000\000\000F^\000\000\000\000\000\000\2452\000\000\000\000\000\000S}\000\000\000\000\000\000\241t\000\000\000\000\000\000\017e\000\000\000\000\000\000Y\242\000\000\000\000\000\000C\252\000\000\000\000\000\0009\220\000\000\000\000\000\000\266y\000\000\000\000\000\000\355\244\000\000\000\000\000\0008X\000\000\000\000\000\000\005\224\000\000\000\000\000\000\346!\000\000\000\000\000\000\\g\000\000\000\000\000\000e\300\000\000\000\000\000\000qK\000\000\000\000\000\000x7\000\000\000\000\000\000\220\244\000\000\000\000\000\000\035\252\000\000\000\000\000\000&\031\000\000\000\000\000\000\265\203\000\000\000\000\000\000c\033\000\000\000\000\000\000\rD\000\000\000\000\000\000\347J\000\000\000\000\000\000\377\'\000\000\000\000\000\000\004\302\000\000\000\000\000\000\350j\000\000\000\000\000\000<\030\000\000\000\000\000\000\357p\000\000\000\000\000\000\177\276\000\000\000\000\000\000\002\243\000\000\000\000\000\000xq\000\000\000\000\000\000\234)\000\000\000\000\000\000%\264\000\000\000\000\000\000]\202\000\000\000\000\000\000\266=\000\000\000\000\000\000\337\217\000\000\000\000\000\000\336\260\000\000\000\000\000\000\245O\000\000\000\000\000\000\027J\000\000\000\000\000\000Q\272\000\000\000\000\000\000\260\020\000\000\000\000\000\000\245\237\000\000\000\000\000\000\236\275\000\000\000\000\000\000\265W\000\000\000\000\000\000\364j\000\000\000\000\000\000\313u\000\000\000\000\000\000*`\000\000\000\000\000\000I\\\000\000\000\000\000\0002M\000\000\000\000\000\000\276\211\000\000\000\000\000\000\"[\000\000\000\000\000\000o\241\000\000\000\000\000\000\346\016\000\000\000\000\000\000\261`\000\000\000\000\000\000\026S\000\000\000\000\000\000\250Q\000\000\000\000\000\000;\263\000\000\000\000\000\000\330X\000\000\000\000\000\000\013\262\000\000\000\000\000\000\"\262\000\000\000\000\000\000\020`\000\000\000\000\000\000@F\000\000\000\000\000\000uE\000\000\000\000\000\000&]\000\000\000\000\000\000\335R\000\000\000\000\000\000\330\256\000\000\000\000\000\000i\225\000\000\000\000\000\000\260\230\000\000\000\000\000\000h\227\000\000\000\000\000\000\007\277\000\000\000\000\000\000x\227\000\000\000\000\000\000o2\000\000\000\000\000\000\244\263\000\000\000\000\000\0001\255\000\000\000\000\000\000X\263\000\000\000\000\000\000\031\031\000\000\000\000\000\000\313Q\000\000\000\000\000\000\'\264\000\000\000\000\000\0000\010\000\000\000\000\000\000{\206\000\000\000\000\000\000wU\000\000\000\000\000\000\330h\000\000\000\000\000\0002\244\000\000\000\000\000\000\352\030\000\000\000\000\000\000\007\261\000\000\000\000\000\000\256o\000\000\000\000\000\000]O\000\000\000\000\000\0004-\000\000\000\000\000\000zu\000\000\000\000\000\000\211\005\000\000\000\000\000\000,\016\000\000\000\000\000\000\267\023\000\000\000\000\000\000F\036\000\000\000\000\000\000\235\277\000\000\000\000\000\000%l\000\000\000\000\000\000\337\027\000\000\000\000\000\000w\236\000\000\000\000\000\000\231\202\000\000\000\000\000\000e\262\000\000\000\000\000\000&\237\000\000\000\000\000\000\t)\000\000\000\000\000\000\212\277\000\000\000\000\000\000\001\247\000\000\000\000\000\000\343}\000\000\000\000\000\000t\216\000\000\000\000\000\000\352\006\000\000\000\000\000\000 0\000\000\000\000\000\000\004\214\000\000\000\000\000\000\226Q\000\000\000\000\000\000\323\271\000\000\000\000\000\000>;\000\000\000\000\000\000\342\224\000\000\000\000\000\000\246U\000\000\000\000\000\000\342\277\000\000\000\000\000\000-\027\000\000\000\000\000\000\337\200\000\000\000\000\000\000\272\002\000\000\000\000\000\000\274\017\000\000\000\000\000\000\313X\000\000\000\000\000\000\337?\000\000\000\000\000\000\357H\000\000\000\000\000\000\377\235\000\000\000\000\000\000\261\002\000\000\000\000\000\000\246l\000\000\000\000\000\000g\013\000\000\000\000\000\000\222t\000\000\000\000\000\000\225\024\000\000\000\000\000\000\3037\000\000\000\000\000\0007=\000\000\000\000\000\000\263\222\000\000\000\000\000\000\362<\000\000\000\000\000\000\027H\000\000\000\000\000\000\275%\000\000\000\000\000\000\346\027\000\000\000\000\000\000\272D\000\000\000\000\000\000-f\000\000\000\000\000\000\322\264\000\000\000\000\000\000\200c\000\000\000\000\000\000\214\270\000\000\000\000\000\000\006s\000\000\000\000\000\000\371+\000\000\000\000\000\000\034L\000\000\000\000\000\000\212\255\000\000\000\000\000\000gN\000\000\000\000\000\000`Z\000\000\000\000\000\000\332V\000\000\000\000\000\000R\242\000\000\000\000\000\000\355\037\000\000\000\000\000\000\204\177\000\000\000\000\000\000,\200\000\000\000\000\000\000S\021\000\000\000\000\000\000\241\244\000\000\000\000\000\000\262&\000\000\000\000\000\000\203@\000\000\000\000\000\000\227S\000\000\000\000\000\000\320\254\000\000\000\000\000\000\254\270\000\000\000\000\000\00039\000\000\000\000\000\000\004:\000\000\000\000\000\000`A\000\000\000\000\000\000\371g\000\000\000\000\000\000\205E\000\000\000\000\000\000-J\000\000\000\000\000\000\034\032\000\000\000\000\000\000\237\221\000\000\000\000\000\000\352r\000\000\000\000\000\000\202\206\000\000\000\000\000\000\3009\000\000\000\000\000\000\201\302\000\000\000\000\000\0004\001\000\000\000\000\000\000\376\002\000\000\000\000\000\000H\027\000\000\000\000\000\000\022\300\000\000\000\000\000\000\330\225\000\000\000\000\000\000m\203\000\000\000\000\000\000\300F\000\000\000\000\000\000\315.\000\000\000\000\000\000\235<\000\000\000\000\000\000[\177\000\000\000\000\000\000\235\036\000\000\000\000\000\000\207F\000\000\000\000\000\000\322/\000\000\000\000\000\0008\214\000\000\000\000\000\000\0069\000\000\000\000\000\000R\276\000\000\000\000\000\000\222\014\000\000\000\000\000\000^4\000\000\000\000\000\000\345[\000\000\000\000\000\000-)\000\000\000\000\000\000\212/\000\000\000\000\000\000\022i\000\000\000\000\000\000\204\221\000\000\000\000\000\000\250L\000\000\000\000\000\000ZQ\000\000\000\000\000\000\320s\000\000\000\000\000\000\263L\000\000\000\000\000\000\021\251\000\000\000\000\000\000\357M\000\000\000\000\000\000\307\215\000\000\000\000\000\000\333\302\000\000\000\000\000\000n\232\000\000\000\000\000\000\242]\000\000\000\000\000\000\237d\000\000\000\000\000\000\032\010\000\000\000\000\000\000\305K\000\000\000\000\000\000\327v\000\000\000\000\000\000\313>\000\000\000\000\000\000m\211\000\000\000\000\000\000\'\224\000\000\000\000\000\000\301\237\000\000\000\000\000\000[\264\000\000\000\000\000\000\331\007\000\000\000\000\000\000\005\202\000\000\000\000\000\000\3356\000\000\000\000\000\000\010f\000\000\000\000\000\000ym\000\000\000\000\000\000\025\222\000\000\000\000\000\000\006w\000\000\000\000\000\000\207\212\000\000\000\000\000\000\311h\000\000\000\000\000\000|\005\000\000\000\000\000\000w\300\000\000\000\000\000\000\235\023\000\000\000\000\000\000sR\000\000\000\000\000\000\375\r\000\000\000\000\000\000\023Q\000\000\000\000\000\000\201\261\000\000\000\000\000\000\301\n\000\000\000\000\000\0001\\\000\000\000\000\000\000\005\021\000\000\000\000\000\000\235}\000\000\000\000\000\000;\210\000\000\000\000\000\000\362\215\000\000\000\000\000\000\311h\000\000\000\000\000\000f\213\000\000\000\000\000\0000C\000\000\000\000\000\000\327B\000\000\000\000\000\000\310\204\000\000\000\000\000\000\345\030\000\000\000\000\000\000\350H\000\000\000\000\000\000rb\000\000\000\000\000\000\334\261\000\000\000\000\000\000Cr\000\000\000\000\000\000\245\000\000\000\000\000\000\000\rt\000\000\000\000\000\000\355\274\000\000\000\000\000\0003b\000\000\000\000\000\000\277z\000\000\000\000\000\000W1\000\000\000\000\000\000\2160\000\000\000\000\000\000\227X\000\000\000\000\000\000K1\000\000\000\000\000\000`\250\000\000\000\000\000\000\273\210\000\000\000\000\000\0007\224\000\000\000\000\000\000\014\255\000\000\000\000\000\000\022P\000\000\000\000\000\000\302\020\000\000\000\000\000\000.&\000\000\000\000\000\000/\\\000\000\000\000\000\000\274\237\000\000\000\000\000\000:3\000\000\000\000\000\000\2558\000\000\000\000\000\000O(\000\000\000\000\000\000\366\273\000\000\000\000\000\000\003\022\000\000\000\000\000\000\300\256\000\000\000\000\000\000\336]\000\000\000\000\000\000^/\000\000\000\000\000\000\210\022\000\000\000\000\000\000\326(\000\000\000\000\000\000L7\000\000\000\000\000\000<\022\000\000\000\000\000\000\321G\000\000\000\000\000\000\306\215\000\000\000\000\000\000\270\035\000\000\000\000\000\000:T\000\000\000\000\000\000&\270\000\000\000\000\000\000R]\000\000\000\000\000\000\355\214\000\000\000\000\000\000DC\000\000\000\000\000\000\245w\000\000\000\000\000\000\251\005\000\000\000\000\000\000\270\014\000\000\000\000\000\000be\000\000\000\000\000\000\354\007\000\000\000\000\000\000C\247\000\000\000\000\000\000\\\021\000\000\000\000\000\000\331\001\000\000\000\000\000\000Hd\000\000\000\000\000\000qv\000\000\000\000\000\000\000\244\000\000\000\000\000\000\301\003\000\000\000\000\000\000\037w\000\000\000\000\000\000\224h\000\000\000\000\000\0003\260\000\000\000\000\000\000\223*\000\000\000\000\000\000=\224\000\000\000\000\000\000<~\000\000\000\000\000\000Q\225\000\000\000\000\000\000`G\000\000\000\000\000\000\337f\000\000\000\000\000\000:T\000\000\000\000\000\000\264D\000\000\000\000\000\000=\201\000\000\000\000\000\000{\216\000\000\000\000\000\000\000\\\000\000\000\000\000\000>)\000\000\000\000\000\000\342N\000\000\000\000\000\000\361\\\000\000\000\000\000\000Sr\000\000\000\000\000\000\177\242\000\000\000\000\000\000\263\256\000\000\000\000\000\000\026\006\000\000\000\000\000\000gb\000\000\000\000\000\000\"V\000\000\000\000\000\000@\244\000\000\000\000\000\000\021\002\000\000\000\000\000\000\222\037\000\000\000\000\000\000\274\221\000\000\000\000\000\000v\240\000\000\000\000\000\000\016\245\000\000\000\000\000\000g?\000\000\000\000\000\000\346\207\000\000\000\000\000\000n\234\000\000\000\000\000\000\361\253\000\000\000\000\000\000\355\026\000\000\000\000\000\000\333\217\000\000\000\000\000\000\206I\000\000\000\000\000\000{&\000\000\000\000\000\000\314r\000\000\000\000\000\000,4\000\000\000\000\000\000\316U\000\000\000\000\000\000\021O\000\000\000\000\000\000\340\231\000\000\000\000\000\000\365m\000\000\000\000\000\000\341|\000\000\000\000\000\000\243\257\000\000\000\000\000\000v\267\000\000\000\000\000\000Pj\000\000\000\000\000\000\007\200\000\000\000\000\000\000\026\026\000\000\000\000\000\000R\027\000\000\000\000\000\000}\'\000\000\000\000\000\000\240\302\000\000\000\000\000\000\347g\000\000\000\000\000\000\327Z\000\000\000\000\000\000l\251\000\000\000\000\000\0007C\000\000\000\000\000\000\302\251\000\000\000\000\000\000\327\255\000\000\000\000\000\000^M\000\000\000\000\000\000Z8\000\000\000\000\000\000\236\215\000\000\000\000\000\000\363\207\000\000\000\000\000\000\033W\000\000\000\000\000\0008*\000\000\000\000\000\000\"*\000\000\000\000\000\0002\231\000\000\000\000\000\000\364\240\000\000\000\000\000\000\372\217\000\000\000\000\000\000\006s\000\000\000\000\000\000\246\000\000\000\000\000\000\000\234\241\000\000\000\000\000\000)A\000\000\000\000\000\000\377\031\000\000\000\000\000\000\266\177\000\000\000\000\000\000KC\000\000\000\000\000\000{^\000\000\000\000\000\000\347d\000\000\000\000\000\000U\"\000\000\000\000\000\000\025\222\000\000\000\000\000\000\302:\000\000\000\000\000\000\257\210\000\000\000\000\000\000\t\004\000\000\000\000\000\000\253l\000\000\000\000\000\000\267\301\000\000\000\000\000\000N!\000\000\000\000\000\000\227\264\000\000\000\000\000\000E\264\000\000\000\000\000\000\001\205\000\000\000\000\000\000\344z\000\000\000\000\000\000M.\000\000\000\000\000\000\330\222\000\000\000\000\000\000\2615\000\000\000\000\000\000\201H\000\000\000\000\000\000\002\t\000\000\000\000\000\000YB\000\000\000\000\000\000\026\233\000\000\000\000\000\000\007\260\000\000\000\000\000\000q\202\000\000\000\000\000\000\373P\000\000\000\000\000\0002\013\000\000\000\000\000\000q\221\000\000\000\000\000\000a/\000\000\000\000\000\000pj\000\000\000\000\000\000\201\205\000\000\000\000\000\0007 \000\000\000\000\000\000\255>\000\000\000\000\000\000\335.\000\000\000\000\000\000\177\037\000\000\000\000\000\000\221\225\000\000\000\000\000\000\225v\000\000\000\000\000\000\212.\000\000\000\000\000\000\236\230\000\000\000\000\000\000\352\210\000\000\000\000\000\000\373\201\000\000\000\000\000\000\241\243\000\000\000\000\000\000/\272\000\000\000\000\000\000\241G\000\000\000\000\000\000/>\000\000\000\000\000\000F(\000\000\000\000\000\000\021z\000\000\000\000\000\000\021E\000\000\000\000\000\000r]\000\000\000\000\000\000&z\000\000\000\000\000\000\321|\000\000\000\000\000\0002\214\000\000\000\000\000\000\211@\000\000\000\000\000\000\266 \000\000\000\000\000\000S\233\000\000\000\000\000\000\212\230\000\000\000\000\000\000{\213\000\000\000\000\000\000\0231\000\000\000\000\000\000/U\000\000\000\000\000\000\201\034\000\000\000\000\000\0004\007\000\000\000\000\000\000\270q\000\000\000\000\000\000\204\257\000\000\000\000\000\000mb\000\000\000\000\000\000\364\301\000\000\000\000\000\000\221\036\000\000\000\000\000\000\212Y\000\000\000\000\000\000\326\250\000\000\000\000\000\000\334\252\000\000\000\000\000\000\255j\000\000\000\000\000\000\235\004\000\000\000\000\000\000\017\237\000\000\000\000\000\000\376j\000\000\000\000\000\000\301z\000\000\000\000\000\000\024R\000\000\000\000\000\000\235z\000\000\000\000\000\000q.\000\000\000\000\000\000\322*\000\000\000\000\000\000AP\000\000\000\000\000\000\027\303\000\000\000\000\000\000\326,\000\000\000\000\000\000\367b\000\000\000\000\000\000O-\000\000\000\000\000\000}K\000\000\000\000\000\000\332\246\000\000\000\000\000\000\035M\000\000\000\000\000\000\237D\000\000\000\000\000\000\2312\000\000\000\000\000\000P\037\000\000\000\000\000\000>&\000\000\000\000\000\000f\216\000\000\000\000\000\000\374\005\000\000\000\000\000\000\036;\000\000\000\000\000\000\005\256\000\000\000\000\000\000\0351\000\000\000\000\000\000\370D\000\000\000\000\000\0000\007\000\000\000\000\000\000Um\000\000\000\000\000\000\331\213\000\000\000\000\000\000\336\002\000\000\000\000\000\0005\036\000\000\000\000\000\000L\023\000\000\000\000\000\000j\275\000\000\000\000\000\000\304\216\000\000\000\000\000\000\270>\000\000\000\000\000\000\236(\000\000\000\000\000\000\037\033\000\000\000\000\000\000\254O\000\000\000\000\000\000w~\000\000\000\000\000\000\244G\000\000\000\000\000\000m?\000\000\000\000\000\000g\001\000\000\000\000\000\000\341\261\000\000\000\000\000\000\377&\000\000\000\000\000\000M8\000\000\000\000\000\000X\003\000\000\000\000\000\000\245`\000\000\000\000\000\000=\207\000\000\000\000\000\000\037\031\000\000\000\000\000\000IB\000\000\000\000\000\000|>\000\000\000\000\000\0005z\000\000\000\000\000\000\005\005\000\000\000\000\000\000\243!\000\000\000\000\000\000\256@\000\000\000\000\000\000\236S\000\000\000\000\000\000|\002\000\000\000\000\000\000\232\233\000\000\000\000\000\000\r\226\000\000\000\000\000\000\3310\000\000\000\000\000\000*|\000\000\000\000\000\0002O\000\000\000\000\000\000\315K\000\000\000\000\000\000g\216\000\000\000\000\000\000\261I\000\000\000\000\000\000\205j\000\000\000\000\000\000\253\256\000\000\000\000\000\000\025N\000\000\000\000\000\000\363G\000\000\000\000\000\000\364\215\000\000\000\000\000\000\346>\000\000\000\000\000\000\366k\000\000\000\000\000\000>?\000\000\000\000\000\000\371\302\000\000\000\000\000\000r\202\000\000\000\000\000\000c`\000\000\000\000\000\000\014\027\000\000\000\000\000\0000\024\000\000\000\000\000\000:p\000\000\000\000\000\000E\201\000\000\000\000\000\000\347\017\000\000\000\000\000\000\203\256\000\000\000\000\000\000\211S\000\000\000\000\000\000B\200\000\000\000\000\000\000\010\035\000\000\000\000\000\000\212\247\000\000\000\000\000\000Z^\000\000\000\000\000\000&\032\000\000\000\000\000\000Lt\000\000\000\000\000\000\224\035\000\000\000\000\000\000J\212\000\000\000\000\000\000\234l\000\000\000\000\000\000\3516\000\000\000\000\000\000\000.\000\000\000\000\000\000\372\000\000\000\000\000\000\000\243c\000\000\000\000\000\000\236H\000\000\000\000\000\000Vf\000\000\000\000\000\000\242\016\000\000\000\000\000\000Ci\000\000\000\000\000\000\3459\000\000\000\000\000\000Qo\000\000\000\000\000\000)\010\000\000\000\000\000\000\004+\000\000\000\000\000\000\256\245\000\000\000\000\000\000#V\000\000\000\000\000\000(\271\000\000\000\000\000\000P,\000\000\000\000\000\000h\271\000\000\000\000\000\000N\214\000\000\000\000\000\000\2575\000\000\000\000\000\000jR\000\000\000\000\000\000\215\026\000\000\000\000\000\000.\273\000\000\000\000\000\000\247#\000\000\000\000\000\000e\264\000\000\000\000\000\000E^\000\000\000\000\000\000\367\\\000\000\000\000\000\000\251\255\000\000\000\000\000\000\016@\000\000\000\000\000\000&\236\000\000\000\000\000\000\013\201\000\000\000\000\000\000D\225\000\000\000\000\000\000\236\033\000\000\000\000\000\000\024p\000\000\000\000\000\000\242\275\000\000\000\000\000\000\006L\000\000\000\000\000\000\024>\000\000\000\000\000\000F\272\000\000\000\000\000\000A\236\000\000\000\000\000\000\372\254\000\000\000\000\000\000\377\271\000\000\000\000\000\000\266\241\000\000\000\000\000\000\335\262\000\000\000\000\000\000fG\000\000\000\000\000\000\313k\000\000\000\000\000\000+\300\000\000\000\000\000\000#\004\000\000\000\000\000\000\376g\000\000\000\000\000\000\312\214\000\000\000\000\000\000\374\264\000\000\000\000\000\000S;\000\000\000\000\000\000\256$\000\000\000\000\000\000\373V\000\000\000\000\000\000\323v\000\000\000\000\000\000\002Z\000\000\000\000\000\000O\202\000\000\000\000\000\000, \000\000\000\000\000\000\343\021\000\000\000\000\000\000x\200\000\000\000\000\000\000b(\000\000\000\000\000\000a\013\000\000\000\000\000\000%\253\000\000\000\000\000\000\357\250\000\000\000\000\000\000\0320\000\000\000\000\000\000\001T\000\000\000\000\000\000a7\000\000\000\000\000\000L\202\000\000\000\000\000\000\330\021\000\000\000\000\000\000\366~\000\000\000\000\000\000gD\000\000\000\000\000\000\342\006\000\000\000\000\000\000\317\231\000\000\000\000\000\000\"G\000\000\000\000\000\000*\036\000\000\000\000\000\000\261\005\000\000\000\000\000\000\276\220\000\000\000\000\000\000\005H\000\000\000\000\000\000w_\000\000\000\000\000\000/\255\000\000\000\000\000\000\025B\000\000\000\000\000\000\336W\000\000\000\000\000\0008h\000\000\000\000\000\000Vg\000\000\000\000\000\000\017\005\000\000\000\000\000\000Nn\000\000\000\000\000\000\343\037\000\000\000\000\000\000b[\000\000\000\000\000\000O\263\000\000\000\000\000\000\235]\000\000\000\000\000\000\364\265\000\000\000\000\000\000x\027\000\000\000\000\000\000,K\000\000\000\000\000\000\362{\000\000\000\000\000\000\235\215\000\000\000\000\000\000\261{\000\000\000\000\000\000N\276\000\000\000\000\000\000\313l\000\000\000\000\000\000\242\'\000\000\000\000\000\000\253\215\000\000\000\000\000\000u\300\000\000\000\000\000\000\222\200\000\000\000\000\000\000\327<\000\000\000\000\000\000\232\257\000\000\000\000\000\000\257A\000\000\000\000\000\000\030\013\000\000\000\000\000\000US\000\000\000\000\000\000\036\253\000\000\000\000\000\000-&\000\000\000\000\000\000\270\254\000\000\000\000\000\000\257\267\000\000\000\000\000\000\001\034\000\000\000\000\000\000\274A\000\000\000\000\000\000{\262\000\000\000\000\000\000\2134\000\000\000\000\000\000\013\256\000\000\000\000\000\000\313j\000\000\000\000\000\000\250\031\000\000\000\000\000\000\251\206\000\000\000\000\000\000\362z\000\000\000\000\000\000j\226\000\000\000\000\000\000>\"\000\000\000\000\000\0009\273\000\000\000\000\000\000,\t\000\000\000\000\000\000e\211\000\000\000\000\000\000\362+\000\000\000\000\000\000\222:\000\000\000\000\000\000:\253\000\000\000\000\000\000z\262\000\000\000\000\000\000\223F\000\000\000\000\000\000u\253\000\000\000\000\000\000\320,\000\000\000\000\000\000\244B\000\000\000\000\000\000\222i\000\000\000\000\000\000\313\235\000\000\000\000\000\000\201\017\000\000\000\000\000\000\351`\000\000\000\000\000\000e\210\000\000\000\000\000\000\314K\000\000\000\000\000\000-\033\000\000\000\000\000\000\000\213\000\000\000\000\000\000\223\203\000\000\000\000\000\000\351\017\000\000\000\000\000\000w\272\000\000\000\000\000\000\323\242\000\000\000\000\000\000\232\005\000\000\000\000\000\000I\300\000\000\000\000\000\000\031p\000\000\000\000\000\000Y\013\000\000\000\000\000\000\'g\000\000\000\000\000\000\242\005\000\000\000\000\000\000\313\237\000\000\000\000\000\000\203\240\000\000\000\000\000\000##\000\000\000\000\000\000\344\235\000\000\000\000\000\000qX\000\000\000\000\000\000K\202\000\000\000\000\000\000\t]\000\000\000\000\000\000\000\213\000\000\000\000\000\000\004\301\000\000\000\000\000\000\022\010\000\000\000\000\000\000+\031\000\000\000\000\000\000\207<\000\000\000\000\000\000\315H\000\000\000\000\000\000w:\000\000\000\000\000\000\000e\000\000\000\000\000\000\235\214\000\000\000\000\000\000\005\207\000\000\000\000\000\000\017\035\000\000\000\000\000\000:L\000\000\000\000\000\000\350q\000\000\000\000\000\000xy\000\000\000\000\000\000vw\000\000\000\000\000\000\337\006\000\000\000\000\000\000q1\000\000\000\000\000\000\273\025\000\000\000\000\000\000e\026\000\000\000\000\000\000\341\200\000\000\000\000\000\000_\240\000\000\000\000\000\000>m\000\000\000\000\000\000PV\000\000\000\000\000\000gQ\000\000\000\000\000\000\372\t\000\000\000\000\000\000\3451\000\000\000\000\000\000\372\263\000\000\000\000\000\000h`\000\000\000\000\000\000_T\000\000\000\000\000\000\302\261\000\000\000\000\000\000l\014\000\000\000\000\000\000Vd\000\000\000\000\000\000h\245\000\000\000\000\000\000wY\000\000\000\000\000\000Ey\000\000\000\000\000\000A+\000\000\000\000\000\000C\201\000\000\000\000\000\000(c\000\000\000\000\000\000\255\264\000\000\000\000\000\000\276\223\000\000\000\000\000\000\2067\000\000\000\000\000\000\315\024\000\000\000\000\000\000\267s\000\000\000\000\000\000\000j\000\000\000\000\000\000g>\000\000\000\000\000\0008\031\000\000\000\000\000\000-T\000\000\000\000\000\000i;\000\000\000\000\000\000\033\211\000\000\000\000\000\000:F\000\000\000\000\000\000\365\266\000\000\000\000\000\000\312g\000\000\000\000\000\000?3\000\000\000\000\000\000\262;\000\000\000\000\000\000\347\241\000\000\000\000\000\000\303\033\000\000\000\000\000\000+\021\000\000\000\000\000\000/\205\000\000\000\000\000\000\006\255\000\000\000\000\000\000k\026\000\000\000\000\000\0005\265\000\000\000\000\000\000\020!\000\000\000\000\000\000\317\204\000\000\000\000\000\000\354\270\000\000\000\000\000\000o(\000\000\000\000\000\000\360\246\000\000\000\000\000\000\177\014\000\000\000\000\000\000\341\207\000\000\000\000\000\000S\177\000\000\000\000\000\000\264\226\000\000\000\000\000\000wW\000\000\000\000\000\000\003\234\000\000\000\000\000\000\335\007\000\000\000\000\000\000\236\'\000\000\000\000\000\000\364\256\000\000\000\000\000\000\217\256\000\000\000\000\000\000\316L\000\000\000\000\000\000\025\035\000\000\000\000\000\000\215#\000\000\000\000\000\000J\223\000\000\000\000\000\000\035\247\000\000\000\000\000\000\2324\000\000\000\000\000\000\2766\000\000\000\000\000\000R>\000\000\000\000\000\000\246O\000\000\000\000\000\000\265\205\000\000\000\000\000\000k\213\000\000\000\000\000\000X\007\000\000\000\000\000\000\330q\000\000\000\000\000\000g\263\000\000\000\000\000\000\2336\000\000\000\000\000\000\361\213\000\000\000\000\000\000\301L\000\000\000\000\000\000\331:\000\000\000\000\000\000\263\246\000\000\000\000\000\000\030\214\000\000\000\000\000\000%.\000\000\000\000\000\000S/\000\000\000\000\000\000\3041\000\000\000\000\000\000\022\205\000\000\000\000\000\000\374i\000\000\000\000\000\000a}\000\000\000\000\000\000m\251\000\000\000\000\000\000\371\214\000\000\000\000\000\000\005\261\000\000\000\000\000\000x\255\000\000\000\000\000\000\3428\000\000\000\000\000\000d:\000\000\000\000\000\000\035:\000\000\000\000\000\000\302\023\000\000\000\000\000\000\220I\000\000\000\000\000\000\004\255\000\000\000\000\000\000\203\215\000\000\000\000\000\000\272\r\000\000\000\000\000\000\376\022\000\000\000\000\000\000\206D\000\000\000\000\000\000\t\300\000\000\000\000\000\000-^\000\000\000\000\000\000|P\000\000\000\000\000\000\032\246\000\000\000\000\000\000\205\233\000\000\000\000\000\000\256\271\000\000\000\000\000\000\212}\000\000\000\000\000\000\373@\000\000\000\000\000\000\315r\000\000\000\000\000\000\331\212\000\000\000\000\000\000\017\010\000\000\000\000\000\00057\000\000\000\000\000\000\222\"\000\000\000\000\000\000qX\000\000\000\000\000\000\364\017\000\000\000\000\000\000\023\003\000\000\000\000\000\000L|\000\000\000\000\000\000\253\221\000\000\000\000\000\000\216\025\000\000\000\000\000\000\246b\000\000\000\000\000\000,\223\000\000\000\000\000\000\"!\000\000\000\000\000\000\010\227\000\000\000\000\000\000<9\000\000\000\000\000\000EK\000\000\000\000\000\000\013\213\000\000\000\000\000\000?8\000\000\000\000\000\000\'\236\000\000\000\000\000\000\225\025\000\000\000\000\000\000\311\276\000\000\000\000\000\000#I\000\000\000\000\000\000b\020\000\000\000\000\000\000SR\000\000\000\000\000\000pn\000\000\000\000\000\000\346\255\000\000\000\000\000\000\3177\000\000\000\000\000\000\231I\000\000\000\000\000\000!g\000\000\000\000\000\000\322z\000\000\000\000\000\000\272x\000\000\000\000\000\000b\243\000\000\000\000\000\000\\\207\000\000\000\000\000\000\r0\000\000\000\000\000\000E\220\000\000\000\000\000\000nV\000\000\000\000\000\0007e\000\000\000\000\000\000\276p\000\000\000\000\000\000\260q\000\000\000\000\000\000\266]\000\000\000\000\000\000L\242\000\000\000\000\000\000h)\000\000\000\000\000\000*\216\000\000\000\000\000\000\241d\000\000\000\000\000\000/\030\000\000\000\000\000\000\0069\000\000\000\000\000\000UO\000\000\000\000\000\000\016v\000\000\000\000\000\000(\016\000\000\000\000\000\000\034\275\000\000\000\000\000\000\002\270\000\000\000\000\000\000\025\020\000\000\000\000\000\000\220\257\000\000\000\000\000\000\346\204\000\000\000\000\000\000\031\252\000\000\000\000\000\000\352\276\000\000\000\000\000\000\261\033\000\000\000\000\000\000]\220\000\000\000\000\000\000\315\234\000\000\000\000\000\000\345 \000\000\000\000\000\000h\243\000\000\000\000\000\000\232b\000\000\000\000\000\000\313\222\000\000\000\000\000\000\375\017\000\000\000\000\000\0005\245\000\000\000\000\000\000M\263\000\000\000\000\000\000_6\000\000\000\000\000\000@]\000\000\000\000\000\000\355v\000\000\000\000\000\000W\275\000\000\000\000\000\000\372\271\000\000\000\000\000\000\004\252\000\000\000\000\000\000\317\204\000\000\000\000\000\000*D\000\000\000\000\000\000\333Q\000\000\000\000\000\000\207\245\000\000\000\000\000\000\333\037\000\000\000\000\000\000\023j\000\000\000\000\000\000?\255\000\000\000\000\000\000.\245\000\000\000\000\000\000\217\207\000\000\000\000\000\000\240j\000\000\000\000\000\000\225\255\000\000\000\000\000\000BS\000\000\000\000\000\000;\034\000\000\000\000\000\000\343{\000\000\000\000\000\000\211\221\000\000\000\000\000\000\246y\000\000\000\000\000\000:\030\000\000\000\000\000\000\267\273\000\000\000\000\000\000\2110\000\000\000\000\000\000\324c\000\000\000\000\000\000\255\036\000\000\000\000\000\000|\243\000\000\000\000\000\000\374O\000\000\000\000\000\000\240~\000\000\000\000\000\000\250Y\000\000\000\000\000\000\034d\000\000\000\000\000\000\243\233\000\000\000\000\000\000\244\220\000\000\000\000\000\000V\237\000\000\000\000\000\000<\016\000\000\000\000\000\000:\026\000\000\000\000\000\000\372V\000\000\000\000\000\000\240?\000\000\000\000\000\000\221\023\000\000\000\000\000\000f\007\000\000\000\000\000\000\375\207\000\000\000\000\000\000>\002\000\000\000\000\000\000Y\030\000\000\000\000\000\000\345\204\000\000\000\000\000\000t\\\000\000\000\000\000\0005\231\000\000\000\000\000\000\266\245\000\000\000\000\000\000\241D\000\000\000\000\000\000-a\000\000\000\000\000\000\265p\000\000\000\000\000\000[\226\000\000\000\000\000\000\351U\000\000\000\000\000\000l\\\000\000\000\000\000\000\343\230\000\000\000\000\000\000~\031\000\000\000\000\000\0009\235\000\000\000\000\000\000\305R\000\000\000\000\000\000\371\036\000\000\000\000\000\000\364\033\000\000\000\000\000\000}\207\000\000\000\000\000\000\330\251\000\000\000\000\000\000\230\236\000\000\000\000\000\000m9\000\000\000\000\000\000\032\257\000\000\000\000\000\000\320\207\000\000\000\000\000\000\031i\000\000\000\000\000\000\336\005\000\000\000\000\000\000\325V\000\000\000\000\000\000\226\206\000\000\000\000\000\000\010z\000\000\000\000\000\000rO\000\000\000\000\000\000\214\'\000\000\000\000\000\000\344\253\000\000\000\000\000\000\310\255\000\000\000\000\000\000\346~\000\000\000\000\000\000n\001\000\000\000\000\000\000\373C\000\000\000\000\000\000\'\177\000\000\000\000\000\000\'\020\000\000\000\000\000\000\260\227\000\000\000\000\000\000k?\000\000\000\000\000\000g\237\000\000\000\000\000\000\026F\000\000\000\000\000\000\311.\000\000\000\000\000\000\020\275\000\000\000\000\000\000,_\000\000\000\000\000\0008\010\000\000\000\000\000\000\2676\000\000\000\000\000\000h\233\000\000\000\000\000\000ln\000\000\000\000\000\000?\031\000\000\000\000\000\000\263r\000\000\000\000\000\000\375V\000\000\000\000\000\000\372H\000\000\000\000\000\000h+\000\000\000\000\000\000\r\215\000\000\000\000\000\000\0218\000\000\000\000\000\000\222\260\000\000\000\000\000\000\372\230\000\000\000\000\000\000\307\203\000\000\000\000\000\000\375h\000\000\000\000\000\000x\217\000\000\000\000\000\000\225\000\000\000\000\000\000\000\330]\000\000\000\000\000\000Pr\000\000\000\000\000\000\3453\000\000\000\000\000\000\000\035\000\000\000\000\000\000\264\200\000\000\000\000\000\000\275<\000\000\000\000\000\000\322\017\000\000\000\000\000\000\0279\000\000\000\000\000\000\313\253\000\000\000\000\000\000z\215\000\000\000\000\000\000\362Z\000\000\000\000\000\000\331U\000\000\000\000\000\000\375J\000\000\000\000\000\000\326s\000\000\000\000\000\000@\274\000\000\000\000\000\000$\210\000\000\000\000\000\000\201\200\000\000\000\000\000\000\207\247\000\000\000\000\000\000sO\000\000\000\000\000\000\220B\000\000\000\000\000\000\031\277\000\000\000\000\000\000\342\302\000\000\000\000\000\000\217\032\000\000\000\000\000\000\'>\000\000\000\000\000\000\3121\000\000\000\000\000\0007[\000\000\000\000\000\000\205\273\000\000\000\000\000\000z\030\000\000\000\000\000\000U\t\000\000\000\000\000\000,\224\000\000\000\000\000\000(\303\000\000\000\000\000\000\361X\000\000\000\000\000\000cD\000\000\000\000\000\000\024!\000\000\000\000\000\000\2716\000\000\000\000\000\000=\037\000\000\000\000\000\000\226p\000\000\000\000\000\000\000\241\000\000\000\000\000\000\001T\000\000\000\000\000\000\007R\000\000\000\000\000\0007\203\000\000\000\000\000\000\237\261\000\000\000\000\000\000\363&\000\000\000\000\000\000h&\000\000\000\000\000\000P\027\000\000\000\000\000\000\302O\000\000\000\000\000\000-}\000\000\000\000\000\000\342!\000\000\000\000\000\000\236\231\000\000\000\000\000\000\353>\000\000\000\000\000\000`}\000\000\000\000\000\000gB\000\000\000\000\000\000\373/\000\000\000\000\000\000\317\025\000\000\000\000\000\000\374\226\000\000\000\000\000\000p@\000\000\000\000\000\000K:\000\000\000\000\000\000\210\246\000\000\000\000\000\000!a\000\000\000\000\000\000\030\275\000\000\000\000\000\000z\016\000\000\000\000\000\000l\035\000\000\000\000\000\000-\n\000\000\000\000\000\000\310$\000\000\000\000\000\000\"N\000\000\000\000\000\000\243\266\000\000\000\000\000\000\250\003\000\000\000\000\000\000\370\210\000\000\000\000\000\000\310\274\000\000\000\000\000\000\3225\000\000\000\000\000\000g2\000\000\000\000\000\000F\002\000\000\000\000\000\000H\020\000\000\000\000\000\000l{\000\000\000\000\000\000\365\220\000\000\000\000\000\000\035E\000\000\000\000\000\000\306~\000\000\000\000\000\000\033\277\000\000\000\000\000\000\305)\000\000\000\000\000\000\227_\000\000\000\000\000\000\224_\000\000\000\000\000\000h\241\000\000\000\000\000\000\033)\000\000\000\000\000\000\n\300\000\000\000\000\000\000WF\000\000\000\000\000\0006\036\000\000\000\000\000\000\326}\000\000\000\000\000\000\222\023\000\000\000\000\000\000\330o\000\000\000\000\000\000,I\000\000\000\000\000\000c\251\000\000\000\000\000\000\035~\000\000\000\000\000\0008\037\000\000\000\000\000\000:\236\000\000\000\000\000\0008\020\000\000\000\000\000\000e1\000\000\000\000\000\000=\204\000\000\000\000\000\000\315\201\000\000\000\000\000\000(~\000\000\000\000\000\000\021\'\000\000\000\000\000\000\t\014\000\000\000\000\000\000\r_\000\000\000\000\000\000N`\000\000\000\000\000\000cG\000\000\000\000\000\000\\\270\000\000\000\000\000\000\267L\000\000\000\000\000\000N\216\000\000\000\000\000\000/6\000\000\000\000\000\000_P\000\000\000\000\000\000\325\007\000\000\000\000\000\000d\177\000\000\000\000\000\000\266\256\000\000\000\000\000\000Wy\000\000\000\000\000\000\370A\000\000\000\000\000\000\014\266\000\000\000\000\000\000\177\035\000\000\000\000\000\000\206\006\000\000\000\000\000\000q\215\000\000\000\000\000\000B\256\000\000\000\000\000\000\320\211\000\000\000\000\000\000\264M\000\000\000\000\000\000,\035\000\000\000\000\000\000\273X\000\000\000\000\000\000g\277\000\000\000\000\000\000\0141\000\000\000\000\000\000\246e\000\000\000\000\000\000\303\301\000\000\000\000\000\000\245@\000\000\000\000\000\000&p\000\000\000\000\000\000\202,\000\000\000\000\000\000\001\222\000\000\000\000\000\000\021<\000\000\000\000\000\000\237[\000\000\000\000\000\000t\213\000\000\000\000\000\000~\032\000\000\000\000\000\000\256\212\000\000\000\000\000\000\344\032\000\000\000\000\000\000\372>\000\000\000\000\000\000\246e\000\000\000\000\000\000Y}\000\000\000\000\000\000xw\000\000\000\000\000\000g\025\000\000\000\000\000\000\'\252\000\000\000\000\000\000\013v\000\000\000\000\000\000ja\000\000\000\000\000\000+0\000\000\000\000\000\0007\237\000\000\000\000\000\000\3174\000\000\000\000\000\000C\241\000\000\000\000\000\000d\260\000\000\000\000\000\000\230.\000\000\000\000\000\000\213\003\000\000\000\000\000\000|*\000\000\000\000\000\000\270c\000\000\000\000\000\000\2144\000\000\000\000\000\000V4\000\000\000\000\000\000\221@\000\000\000\000\000\0002\032\000\000\000\000\000\000\205A\000\000\000\000\000\000\305Y\000\000\000\000\000\000wU\000\000\000\000\000\000\035\005\000\000\000\000\000\000\206\302\000\000\000\000\000\000M\001\000\000\000\000\000\000\375\264\000\000\000\000\000\000u\257\000\000\000\000\000\000m\036\000\000\000\000\000\000=\005\000\000\000\000\000\000\320\006\000\000\000\000\000\000\177\227\000\000\000\000\000\000P6\000\000\000\000\000\000@s\000\000\000\000\000\0003>\000\000\000\000\000\0008V\000\000\000\000\000\000/d\000\000\000\000\000\000\003a\000\000\000\000\000\0008\270\000\000\000\000\000\000\353\227\000\000\000\000\000\000\027\254\000\000\000\000\000\000\315\262\000\000\000\000\000\000\331A\000\000\000\000\000\000_6\000\000\000\000\000\000\245z\000\000\000\000\000\000\312V\000\000\000\000\000\000\234\231\000\000\000\000\000\000yR\000\000\000\000\000\000\017\005\000\000\000\000\000\000K\014\000\000\000\000\000\000!\211\000\000\000\000\000\000\215\003\000\000\000\000\000\000\277\242\000\000\000\000\000\000dL\000\000\000\000\000\000\273\204\000\000\000\000\000\000\037\032\000\000\000\000\000\000`;\000\000\000\000\000\000O)\000\000\000\000\000\000\361\233\000\000\000\000\000\000\252\202\000\000\000\000\000\000\316,\000\000\000\000\000\000\215\263\000\000\000\000\000\000\006j\000\000\000\000\000\000a\016\000\000\000\000\000\000\303&\000\000\000\000\000\000\303u\000\000\000\000\000\000\370(\000\000\000\000\000\000\243@\000\000\000\000\000\000\303\211\000\000\000\000\000\000\324\006\000\000\000\000\000\000\3176\000\000\000\000\000\000\377\202\000\000\000\000\000\000\0108\000\000\000\000\000\000\177\301\000\000\000\000\000\000\376X\000\000\000\000\000\000)\177\000\000\000\000\000\000\253l\000\000\000\000\000\000yf\000\000\000\000\000\000\276\031\000\000\000\000\000\000\233m\000\000\000\000\000\000G\224\000\000\000\000\000\000QQ\000\000\000\000\000\000\003\235\000\000\000\000\000\000\220\226\000\000\000\000\000\000\206\264\000\000\000\000\000\000aJ\000\000\000\000\000\000l\271\000\000\000\000\000\000mL\000\000\000\000\000\0001:\000\000\000\000\000\000U=\000\000\000\000\000\000\376\207\000\000\000\000\000\000\336k\000\000\000\000\000\000ZS\000\000\000\000\000\000\203t\000\000\000\000\000\000*\235\000\000\000\000\000\000\001\263\000\000\000\000\000\000\023`\000\000\000\000\000\000\0368\000\000\000\000\000\000\014V\000\000\000\000\000\000W{\000\000\000\000\000\000\276I\000\000\000\000\000\000\237H\000\000\000\000\000\000\215\007\000\000\000\000\000\000\225r\000\000\000\000\000\000S\037\000\000\000\000\000\000])\000\000\000\000\000\000\337\256\000\000\000\000\000\000\356{\000\000\000\000\000\000%U\000\000\000\000\000\000)\270\000\000\000\000\000\000\202m\000\000\000\000\000\000\247\027\000\000\000\000\000\000W\'\000\000\000\000\000\000g\n\000\000\000\000\000\000j\257\000\000\000\000\000\000\032\253\000\000\000\000\000\000I\242\000\000\000\000\000\000@\300\000\000\000\000\000\000\210\240\000\000\000\000\000\000\221y\000\000\000\000\000\000\344<\000\000\000\000\000\000\206\027\000\000\000\000\000\000&>\000\000\000\000\000\000\225\233\000\000\000\000\000\000c\216\000\000\000\000\000\000\231s\000\000\000\000\000\000\3557\000\000\000\000\000\000\352%\000\000\000\000\000\000P\201\000\000\000\000\000\000\373X\000\000\000\000\000\000\227\001\000\000\000\000\000\000\266F\000\000\000\000\000\000\231e\000\000\000\000\000\000e.\000\000\000\000\000\000\217\007\000\000\000\000\000\000`[\000\000\000\000\000\000\032s\000\000\000\000\000\000\3039\000\000\000\000\000\0005\212\000\000\000\000\000\000\201\201\000\000\000\000\000\000Lb\000\000\000\000\000\000\210k\000\000\000\000\000\0003t\000\000\000\000\000\000\225\220\000\000\000\000\000\000\346U\000\000\000\000\000\000\014j\000\000\000\000\000\000iW\000\000\000\000\000\000\234$\000\000\000\000\000\000\341\032\000\000\000\000\000\000\317i\000\000\000\000\000\000\366\275\000\000\000\000\000\000\3253\000\000\000\000\000\000\036\265\000\000\000\000\000\000l\021\000\000\000\000\000\000\333\263\000\000\000\000\000\0008q\000\000\000\000\000\000\347Y\000\000\000\000\000\000\273S\000\000\000\000\000\000\352\256\000\000\000\000\000\000P\226\000\000\000\000\000\000\202G\000\000\000\000\000\000\314+\000\000\000\000\000\000\016\232\000\000\000\000\000\000.\026\000\000\000\000\000\000\272[\000\000\000\000\000\000\357_\000\000\000\000\000\000f[\000\000\000\000\000\000\027\234\000\000\000\000\000\000\277\261\000\000\000\000\000\000\250\211\000\000\000\000\000\000\305\247\000\000\000\000\000\0008\275\000\000\000\000\000\000zX\000\000\000\000\000\000\0358\000\000\000\000\000\000!^\000\000\000\000\000\000\023\203\000\000\000\000\000\000!\254\000\000\000\000\000\000J\034\000\000\000\000\000\000U0\000\000\000\000\000\000\212\\\000\000\000\000\000\000\255\225\000\000\000\000\000\000\252\'\000\000\000\000\000\000K\231\000\000\000\000\000\000ai\000\000\000\000\000\000\300\264\000\000\000\000\000\000;4\000\000\000\000\000\000qR\000\000\000\000\000\000\034\002\000\000\000\000\000\000\341\\\000\000\000\000\000\000\310\016\000\000\000\000\000\000O\r\000\000\000\000\000\000,